unsigned char model_tflite[] = {
  0x1c, 0x00, 0x00, 0x00, 0x54, 0x46, 0x4c, 0x33, 0x14, 0x00, 0x20, 0x00,
  0x1c, 0x00, 0x18, 0x00, 0x14, 0x00, 0x10, 0x00, 0x0c, 0x00, 0x00, 0x00,
  0x08, 0x00, 0x04, 0x00, 0x14, 0x00, 0x00, 0x00, 0x1c, 0x00, 0x00, 0x00,
  0x88, 0x00, 0x00, 0x00, 0xe0, 0x00, 0x00, 0x00, 0xb8, 0x16, 0x00, 0x00,
  0xc8, 0x16, 0x00, 0x00, 0x7c, 0x22, 0x00, 0x00, 0x03, 0x00, 0x00, 0x00,
  0x01, 0x00, 0x00, 0x00, 0x04, 0x00, 0x00, 0x00, 0x36, 0xe8, 0xff, 0xff,
  0x0c, 0x00, 0x00, 0x00, 0x1c, 0x00, 0x00, 0x00, 0x38, 0x00, 0x00, 0x00,
  0x0f, 0x00, 0x00, 0x00, 0x73, 0x65, 0x72, 0x76, 0x69, 0x6e, 0x67, 0x5f,
  0x64, 0x65, 0x66, 0x61, 0x75, 0x6c, 0x74, 0x00, 0x01, 0x00, 0x00, 0x00,
  0x04, 0x00, 0x00, 0x00, 0x94, 0xff, 0xff, 0xff, 0x0f, 0x00, 0x00, 0x00,
  0x04, 0x00, 0x00, 0x00, 0x07, 0x00, 0x00, 0x00, 0x64, 0x65, 0x6e, 0x73,
  0x65, 0x5f, 0x31, 0x00, 0x01, 0x00, 0x00, 0x00, 0x04, 0x00, 0x00, 0x00,
  0x26, 0xe9, 0xff, 0xff, 0x04, 0x00, 0x00, 0x00, 0x0c, 0x00, 0x00, 0x00,
  0x63, 0x6f, 0x6e, 0x76, 0x32, 0x64, 0x5f, 0x69, 0x6e, 0x70, 0x75, 0x74,
  0x00, 0x00, 0x00, 0x00, 0x02, 0x00, 0x00, 0x00, 0x34, 0x00, 0x00, 0x00,
  0x04, 0x00, 0x00, 0x00, 0xdc, 0xff, 0xff, 0xff, 0x12, 0x00, 0x00, 0x00,
  0x04, 0x00, 0x00, 0x00, 0x13, 0x00, 0x00, 0x00, 0x43, 0x4f, 0x4e, 0x56,
  0x45, 0x52, 0x53, 0x49, 0x4f, 0x4e, 0x5f, 0x4d, 0x45, 0x54, 0x41, 0x44,
  0x41, 0x54, 0x41, 0x00, 0x08, 0x00, 0x0c, 0x00, 0x08, 0x00, 0x04, 0x00,
  0x08, 0x00, 0x00, 0x00, 0x11, 0x00, 0x00, 0x00, 0x04, 0x00, 0x00, 0x00,
  0x13, 0x00, 0x00, 0x00, 0x6d, 0x69, 0x6e, 0x5f, 0x72, 0x75, 0x6e, 0x74,
  0x69, 0x6d, 0x65, 0x5f, 0x76, 0x65, 0x72, 0x73, 0x69, 0x6f, 0x6e, 0x00,
  0x13, 0x00, 0x00, 0x00, 0xd4, 0x15, 0x00, 0x00, 0xcc, 0x15, 0x00, 0x00,
  0xb4, 0x15, 0x00, 0x00, 0x8c, 0x15, 0x00, 0x00, 0x1c, 0x15, 0x00, 0x00,
  0xcc, 0x14, 0x00, 0x00, 0xbc, 0x01, 0x00, 0x00, 0x8c, 0x01, 0x00, 0x00,
  0xfc, 0x00, 0x00, 0x00, 0xdc, 0x00, 0x00, 0x00, 0xbc, 0x00, 0x00, 0x00,
  0xb4, 0x00, 0x00, 0x00, 0xac, 0x00, 0x00, 0x00, 0xa4, 0x00, 0x00, 0x00,
  0x9c, 0x00, 0x00, 0x00, 0x94, 0x00, 0x00, 0x00, 0x8c, 0x00, 0x00, 0x00,
  0x6c, 0x00, 0x00, 0x00, 0x04, 0x00, 0x00, 0x00, 0xee, 0xe9, 0xff, 0xff,
  0x04, 0x00, 0x00, 0x00, 0x58, 0x00, 0x00, 0x00, 0x0c, 0x00, 0x00, 0x00,
  0x08, 0x00, 0x0e, 0x00, 0x08, 0x00, 0x04, 0x00, 0x08, 0x00, 0x00, 0x00,
  0x10, 0x00, 0x00, 0x00, 0x28, 0x00, 0x00, 0x00, 0x00, 0x00, 0x06, 0x00,
  0x08, 0x00, 0x04, 0x00, 0x06, 0x00, 0x00, 0x00, 0x04, 0x00, 0x00, 0x00,
  0x01, 0x00, 0x00, 0x00, 0xeb, 0x03, 0x00, 0x00, 0x00, 0x00, 0x0a, 0x00,
  0x10, 0x00, 0x0c, 0x00, 0x08, 0x00, 0x04, 0x00, 0x0a, 0x00, 0x00, 0x00,
  0x01, 0x00, 0x00, 0x00, 0x02, 0x00, 0x00, 0x00, 0x04, 0x00, 0x00, 0x00,
  0x06, 0x00, 0x00, 0x00, 0x32, 0x2e, 0x31, 0x31, 0x2e, 0x30, 0x00, 0x00,
  0x52, 0xea, 0xff, 0xff, 0x04, 0x00, 0x00, 0x00, 0x10, 0x00, 0x00, 0x00,
  0x31, 0x2e, 0x31, 0x34, 0x2e, 0x30, 0x00, 0x00, 0x00, 0x00, 0x00, 0x00,
  0x00, 0x00, 0x00, 0x00, 0x08, 0xe0, 0xff, 0xff, 0x0c, 0xe0, 0xff, 0xff,
  0x10, 0xe0, 0xff, 0xff, 0x14, 0xe0, 0xff, 0xff, 0x18, 0xe0, 0xff, 0xff,
  0x1c, 0xe0, 0xff, 0xff, 0x86, 0xea, 0xff, 0xff, 0x04, 0x00, 0x00, 0x00,
  0x10, 0x00, 0x00, 0x00, 0xca, 0xed, 0xd9, 0x81, 0xf2, 0x22, 0x81, 0x7c,
  0x7a, 0x7f, 0xe7, 0x4c, 0x86, 0x82, 0x7f, 0x7b, 0xa2, 0xea, 0xff, 0xff,
  0x04, 0x00, 0x00, 0x00, 0x10, 0x00, 0x00, 0x00, 0x04, 0xfe, 0xff, 0xff,
  0x50, 0xfe, 0xff, 0xff, 0x17, 0x00, 0x00, 0x00, 0xed, 0xff, 0xff, 0xff,
  0xbe, 0xea, 0xff, 0xff, 0x04, 0x00, 0x00, 0x00, 0x80, 0x00, 0x00, 0x00,
  0xa9, 0x78, 0x35, 0x13, 0xd2, 0x34, 0x03, 0x25, 0x1d, 0x3d, 0x46, 0x02,
  0x7f, 0x34, 0xb5, 0x36, 0x4d, 0x32, 0x20, 0x2e, 0x27, 0x2c, 0xf3, 0x0c,
  0xd1, 0x64, 0x17, 0x09, 0x3b, 0x7f, 0xbe, 0xf4, 0x25, 0x8b, 0x2d, 0x03,
  0x3a, 0x8e, 0x1b, 0x8b, 0x45, 0x97, 0x3d, 0x05, 0x21, 0x81, 0x58, 0xfc,
  0xb8, 0x33, 0x34, 0x17, 0x89, 0x26, 0xe9, 0x3b, 0xad, 0xcc, 0x29, 0x7f,
  0x96, 0x19, 0x46, 0x28, 0xf8, 0xbf, 0x0f, 0xd0, 0x51, 0xd5, 0xf2, 0xdd,
  0xf1, 0x49, 0x01, 0x44, 0xc6, 0x24, 0xde, 0x7f, 0xe2, 0xdf, 0x5d, 0xf8,
  0xb3, 0x30, 0xfb, 0xff, 0xdf, 0xc8, 0x95, 0x7f, 0xf4, 0x32, 0xe3, 0x02,
  0x19, 0xe4, 0x33, 0xde, 0xb5, 0x50, 0x21, 0xdb, 0x53, 0x7f, 0x49, 0x2b,
  0x28, 0xdd, 0x3d, 0xd0, 0x09, 0xdf, 0x36, 0xe2, 0xd8, 0x7c, 0x0d, 0xda,
  0xd6, 0x7f, 0x3e, 0x1a, 0x57, 0x7a, 0x26, 0xe8, 0x4a, 0xeb, 0xff, 0xff,
  0x04, 0x00, 0x00, 0x00, 0x20, 0x00, 0x00, 0x00, 0x76, 0xf5, 0xff, 0xff,
  0x4d, 0xf7, 0xff, 0xff, 0x46, 0x0a, 0x00, 0x00, 0x29, 0x02, 0x00, 0x00,
  0xe1, 0x00, 0x00, 0x00, 0xf7, 0x03, 0x00, 0x00, 0x2e, 0xec, 0xff, 0xff,
  0xd0, 0xee, 0xff, 0xff, 0x76, 0xeb, 0xff, 0xff, 0x04, 0x00, 0x00, 0x00,
  0x00, 0x13, 0x00, 0x00, 0x0b, 0xf6, 0xee, 0x26, 0x1f, 0xf5, 0xfe, 0x37,
  0x12, 0x32, 0xd5, 0x2d, 0x18, 0xfc, 0xe7, 0xfa, 0x24, 0xfd, 0xee, 0xee,
  0x15, 0xe3, 0x07, 0x23, 0x12, 0xfd, 0xd6, 0xff, 0x28, 0x05, 0x11, 0x07,
  0x2d, 0x34, 0xf0, 0x25, 0x00, 0x0c, 0x1f, 0xfa, 0x26, 0x2d, 0xd8, 0x0e,
  0xbd, 0x14, 0xea, 0x3d, 0x12, 0x03, 0xf0, 0x15, 0x17, 0x09, 0x0f, 0x29,
  0xe3, 0xfc, 0xfa, 0x3a, 0x22, 0xf7, 0x06, 0xf4, 0xe8, 0x15, 0xe9, 0xf4,
  0xe4, 0x1b, 0xe2, 0x17, 0xf6, 0xf0, 0x07, 0x1f, 0xee, 0x1e, 0x11, 0x23,
  0x25, 0x0b, 0xe0, 0x0b, 0x01, 0x16, 0x17, 0x2c, 0x05, 0x10, 0xe5, 0xfe,
  0xd3, 0x0d, 0xee, 0x2f, 0xe3, 0x03, 0x00, 0x25, 0x23, 0x0b, 0x00, 0x0d,
  0x24, 0x01, 0xd1, 0x27, 0x12, 0x26, 0x2f, 0xf3, 0xf7, 0xe4, 0x04, 0xec,
  0xfd, 0xe3, 0xed, 0x1a, 0x25, 0x1b, 0x06, 0x0f, 0x07, 0xf1, 0x1e, 0x29,
  0xea, 0xed, 0xfd, 0x33, 0xea, 0xe6, 0x12, 0x18, 0x09, 0x15, 0xe4, 0x0f,
  0xed, 0x10, 0x12, 0x15, 0x0a, 0x04, 0xe9, 0xfd, 0xff, 0x1b, 0x3b, 0x39,
  0x19, 0x08, 0xe6, 0xff, 0x31, 0x03, 0x08, 0x4b, 0x14, 0x23, 0xd6, 0x30,
  0xef, 0x05, 0x29, 0x1a, 0x08, 0x09, 0xd9, 0x14, 0xeb, 0xfe, 0x05, 0x1e,
  0xea, 0x21, 0x01, 0xf2, 0xfa, 0x26, 0x3e, 0x44, 0x0f, 0xf0, 0xe2, 0x20,
  0xe5, 0xe2, 0x07, 0x2f, 0x35, 0x32, 0xea, 0x08, 0xe4, 0x1e, 0x3f, 0x42,
  0x16, 0xfc, 0x24, 0xdc, 0x09, 0xda, 0x1f, 0x03, 0x33, 0x12, 0xf8, 0xce,
  0x0b, 0x12, 0x17, 0xfc, 0x0e, 0x3c, 0xe9, 0xb3, 0x19, 0x10, 0x23, 0x05,
  0x1a, 0x50, 0x02, 0xc7, 0x3d, 0xdb, 0x1c, 0xf3, 0x09, 0x3f, 0xf5, 0xe0,
  0x48, 0xe0, 0xfb, 0xe1, 0x1f, 0x54, 0xf3, 0xae, 0x04, 0xe5, 0xec, 0x16,
  0x0a, 0x50, 0x07, 0xc0, 0x3a, 0xed, 0x20, 0xf1, 0x0b, 0x14, 0xf1, 0xb9,
  0x3a, 0xfd, 0xf9, 0x05, 0x15, 0x24, 0x03, 0x85, 0xf5, 0x20, 0x2f, 0x18,
  0xf4, 0x2f, 0xf7, 0xb0, 0x09, 0xed, 0x24, 0xe6, 0x23, 0x1e, 0x02, 0xc6,
  0x3c, 0x06, 0x14, 0xf5, 0x24, 0x3a, 0xdb, 0xab, 0x2a, 0xea, 0x19, 0x02,
  0x25, 0x47, 0xf6, 0xd2, 0x0f, 0xee, 0x08, 0xea, 0x04, 0x1b, 0xfe, 0xbb,
  0xf0, 0x27, 0xf7, 0xf6, 0xcd, 0xdd, 0xf0, 0xf9, 0x2c, 0x30, 0xf0, 0xd1,
  0xff, 0x10, 0x08, 0xe7, 0x29, 0xf3, 0xe0, 0xdd, 0xd7, 0x00, 0xe9, 0xda,
  0x09, 0x4a, 0xf2, 0xc5, 0x04, 0xde, 0x13, 0xfa, 0x1a, 0x03, 0xc1, 0xda,
  0x26, 0xe8, 0xea, 0xd3, 0x02, 0x1f, 0xf2, 0xd9, 0x0c, 0x11, 0x1f, 0xe4,
  0x01, 0xe9, 0xbd, 0xc6, 0xfc, 0xf9, 0xeb, 0xcb, 0x00, 0x2e, 0xff, 0xfd,
  0x05, 0xe6, 0x00, 0xcd, 0xeb, 0x3b, 0xe2, 0xfc, 0xc3, 0xd4, 0xf4, 0xb4,
  0x1b, 0x43, 0xec, 0xdd, 0x01, 0x0c, 0xf7, 0xc2, 0xe9, 0x26, 0xf0, 0xf4,
  0xf7, 0x0d, 0xf7, 0xdf, 0x50, 0xd5, 0xf6, 0xba, 0xd9, 0xc0, 0xe7, 0x2c,
  0x0d, 0xf6, 0xc7, 0xd9, 0xe7, 0xda, 0x15, 0x21, 0xff, 0xae, 0xdf, 0xda,
  0xe8, 0xe0, 0x2f, 0x00, 0xeb, 0x13, 0xd6, 0x04, 0xfc, 0xeb, 0x03, 0x1f,
  0xcf, 0xed, 0xda, 0xe4, 0xf0, 0x04, 0x25, 0x19, 0xf8, 0x06, 0x0f, 0xf1,
  0xd2, 0xcb, 0x25, 0x36, 0x00, 0xd2, 0xfb, 0xfe, 0x0c, 0xdd, 0xf9, 0xe6,
  0x0f, 0x05, 0xc9, 0xef, 0xdf, 0xc8, 0x17, 0x2f, 0xe5, 0x47, 0xc3, 0xe3,
  0xd6, 0xc7, 0x36, 0x08, 0x1f, 0xf6, 0xfc, 0xd7, 0x0c, 0xd5, 0xfe, 0xf1,
  0xf4, 0xe1, 0xf9, 0x00, 0xea, 0xe7, 0x2c, 0x07, 0x32, 0xca, 0xf5, 0xf7,
  0xcf, 0xf7, 0x13, 0xeb, 0xd9, 0xdc, 0xca, 0xcf, 0xf1, 0xdf, 0x47, 0x1d,
  0xa4, 0xea, 0x14, 0xda, 0x04, 0xc7, 0x42, 0x01, 0xfe, 0xeb, 0xf9, 0xf9,
  0x1c, 0x05, 0x40, 0x00, 0x0a, 0xff, 0xec, 0x06, 0xcf, 0xe0, 0x38, 0xf5,
  0xdf, 0x02, 0xd9, 0x04, 0xce, 0xea, 0x27, 0xf9, 0x2c, 0x1a, 0xf6, 0xf6,
  0xef, 0x1e, 0x0a, 0xf0, 0xfe, 0x03, 0xf4, 0xce, 0x0e, 0xcd, 0x32, 0x22,
  0xdf, 0x27, 0xc3, 0xff, 0xeb, 0x26, 0x2a, 0xe2, 0x16, 0x00, 0xdf, 0xc5,
  0xd7, 0x10, 0x1d, 0xe7, 0xfd, 0x18, 0x03, 0xec, 0x00, 0xe2, 0x24, 0xc9,
  0x2a, 0x19, 0xdb, 0xcd, 0x05, 0x08, 0x31, 0x02, 0x2d, 0x0d, 0xda, 0xdc,
  0xe4, 0xda, 0x28, 0xfd, 0x13, 0x31, 0xb8, 0xd2, 0xd2, 0x0d, 0x08, 0x15,
  0xf8, 0xff, 0xcd, 0xd3, 0xde, 0xd5, 0x1c, 0xe7, 0xcc, 0x02, 0xce, 0xef,
  0xf9, 0x01, 0x37, 0x05, 0xe1, 0xc1, 0x4b, 0x18, 0x14, 0xca, 0x3c, 0x28,
  0xf3, 0x03, 0x17, 0x2e, 0x21, 0xe2, 0x51, 0x21, 0xe7, 0xea, 0x3f, 0x15,
  0x05, 0xcd, 0x48, 0x06, 0xc3, 0xe6, 0x08, 0x22, 0x05, 0xec, 0x1f, 0x20,
  0xf5, 0xdc, 0x28, 0x15, 0x17, 0xde, 0x47, 0x31, 0xf8, 0x07, 0x28, 0x2c,
  0xff, 0xeb, 0x1b, 0x27, 0xd0, 0xe1, 0x3a, 0x14, 0x06, 0xff, 0x32, 0x3d,
  0x0c, 0xf5, 0x0c, 0x2b, 0x12, 0xe3, 0x26, 0x24, 0xed, 0xde, 0x17, 0xf9,
  0xed, 0xd9, 0x5b, 0x0e, 0xcb, 0xfc, 0x27, 0x2f, 0x09, 0xfd, 0x42, 0x32,
  0xd6, 0xe9, 0x0b, 0x25, 0x0d, 0xd1, 0x5a, 0x0a, 0xa4, 0xe0, 0x2e, 0xf3,
  0x12, 0x1f, 0x69, 0xe3, 0xfc, 0xdc, 0x05, 0xdc, 0xc9, 0x19, 0x12, 0xc6,
  0x08, 0xf9, 0xe2, 0xcf, 0xd5, 0xe3, 0x00, 0xd0, 0xe6, 0xc9, 0x00, 0xe1,
  0xdf, 0x07, 0xe4, 0xd9, 0xfb, 0xbc, 0xda, 0xe9, 0xe0, 0xd8, 0xe4, 0xd2,
  0xea, 0xeb, 0x1f, 0xd0, 0xd8, 0xfb, 0xfa, 0xd2, 0x13, 0xda, 0xe4, 0x05,
  0xf5, 0xd6, 0xf4, 0xc7, 0x09, 0x12, 0xf0, 0xd0, 0xd4, 0x08, 0x26, 0xb7,
  0xfa, 0xfc, 0x0f, 0xb6, 0xfc, 0xe6, 0xff, 0xef, 0xf8, 0xd5, 0x16, 0xfa,
  0xf7, 0x07, 0xf9, 0xf2, 0xf2, 0xe5, 0x16, 0xc9, 0x06, 0xe8, 0x16, 0xcb,
  0xf6, 0xf5, 0xd9, 0xc1, 0x03, 0xee, 0x1c, 0xf7, 0x0b, 0xcf, 0xfa, 0xf1,
  0xfb, 0x18, 0x06, 0xcb, 0x19, 0xec, 0xf8, 0xf2, 0xd9, 0x1a, 0xc8, 0x05,
  0xf6, 0x47, 0xec, 0x20, 0x01, 0xd4, 0xf6, 0xf6, 0xfd, 0x05, 0xdd, 0xe0,
  0xea, 0xef, 0xe5, 0xe6, 0x04, 0x06, 0xf8, 0x21, 0xd0, 0xf3, 0xdb, 0x16,
  0xe4, 0x04, 0x08, 0xec, 0xee, 0xf9, 0xf8, 0xfd, 0xe5, 0x10, 0xf2, 0x08,
  0xe8, 0xf1, 0xd4, 0x0a, 0xea, 0xce, 0x36, 0xf0, 0x01, 0xb9, 0x01, 0x03,
  0xd0, 0xed, 0x2d, 0x28, 0x1f, 0xc8, 0xdd, 0x15, 0xcb, 0xfe, 0x06, 0xfe,
  0xdf, 0xd8, 0x18, 0x12, 0xe0, 0xd6, 0x2d, 0x1c, 0x1b, 0xf8, 0xf7, 0xec,
  0xf5, 0xe6, 0x28, 0x1d, 0x0a, 0xc8, 0xed, 0x19, 0xc6, 0xfd, 0x39, 0x0e,
  0xf5, 0xfd, 0x09, 0x08, 0xdd, 0xe4, 0x22, 0x2e, 0x1a, 0xf7, 0xe8, 0x2a,
  0xfd, 0xd9, 0x15, 0x1e, 0xbe, 0xc9, 0x4d, 0xe3, 0xf1, 0xd7, 0xe2, 0xf9,
  0xdf, 0x14, 0x45, 0xe8, 0xe2, 0xbc, 0x0b, 0xc5, 0xe2, 0xdb, 0x1f, 0xd3,
  0xec, 0xe1, 0x0b, 0xf7, 0xd0, 0xd8, 0x39, 0x04, 0xd8, 0xc1, 0xdb, 0xf4,
  0x03, 0xd2, 0x22, 0x0e, 0xdc, 0xeb, 0xd4, 0xe2, 0xbd, 0x07, 0x3d, 0xd1,
  0xbc, 0xec, 0xd8, 0xdb, 0xf4, 0xe3, 0x2d, 0xd7, 0xf9, 0xd6, 0xef, 0x10,
  0xcd, 0xc3, 0x2e, 0xc2, 0xdc, 0xe0, 0x20, 0xc2, 0xd6, 0x02, 0x04, 0x11,
  0xfe, 0xf1, 0xd5, 0xd4, 0x0d, 0xe7, 0x33, 0xe0, 0xc6, 0xfb, 0xea, 0xf5,
  0xee, 0x05, 0x35, 0xda, 0xd9, 0xed, 0x0f, 0xf1, 0x0a, 0x14, 0x10, 0x02,
  0x38, 0xff, 0xef, 0x06, 0xce, 0x08, 0x0d, 0x38, 0xfb, 0xce, 0xec, 0xe4,
  0xfb, 0xd7, 0x4c, 0x0e, 0xc7, 0x1a, 0xd6, 0xd5, 0x0c, 0xf1, 0x0c, 0xfe,
  0xc6, 0x02, 0xd8, 0xba, 0xef, 0x11, 0x38, 0xef, 0xef, 0x06, 0x04, 0xbf,
  0x0b, 0xfd, 0x0f, 0xef, 0xc2, 0xd6, 0xcb, 0xe3, 0xea, 0xe8, 0x10, 0x20,
  0xda, 0xd9, 0xde, 0xef, 0xc2, 0xcb, 0x0e, 0xd8, 0xac, 0xf2, 0x05, 0xe8,
  0x03, 0x00, 0x38, 0xe2, 0xe3, 0xc4, 0xf2, 0xc5, 0xba, 0x00, 0x30, 0xf1,
  0x9f, 0xcd, 0x0c, 0xc0, 0xfb, 0x0a, 0x3b, 0xe4, 0xdd, 0xd4, 0x13, 0xed,
  0xf7, 0xfb, 0x0f, 0xea, 0xfa, 0xc6, 0x05, 0xe3, 0xe4, 0xbe, 0x48, 0xea,
  0xb7, 0xc9, 0x10, 0xc4, 0x23, 0xf5, 0x2d, 0xe1, 0xc0, 0xdb, 0xe8, 0xcd,
  0xfd, 0x1f, 0x5d, 0xc4, 0xf3, 0x08, 0xe4, 0xe5, 0xed, 0xff, 0x34, 0xe3,
  0xac, 0x0f, 0x13, 0xfe, 0xc5, 0xf6, 0x37, 0xe0, 0xd1, 0xd4, 0x14, 0x0d,
  0xf3, 0x08, 0x1d, 0xfc, 0xc6, 0xe4, 0x0d, 0xc3, 0xdf, 0xde, 0x2b, 0xd4,
  0xc7, 0x0d, 0xdb, 0xdd, 0x09, 0xdb, 0x07, 0x0c, 0xd3, 0x00, 0xe5, 0xbe,
  0xcf, 0xd0, 0x17, 0xfb, 0xcf, 0xe7, 0xed, 0xfc, 0xfe, 0xfa, 0x11, 0xdc,
  0xf5, 0xed, 0x07, 0xc1, 0x01, 0x10, 0x1a, 0xf5, 0xe5, 0xd2, 0x1b, 0xd5,
  0xbc, 0xff, 0x2e, 0x00, 0x0a, 0x01, 0x11, 0x0c, 0xe3, 0x05, 0x23, 0x01,
  0x08, 0xc9, 0xca, 0x0e, 0xdf, 0xfd, 0x2d, 0xd1, 0xee, 0xba, 0xf8, 0xe3,
  0xcd, 0xd6, 0x41, 0xf6, 0xae, 0xe2, 0xf0, 0xd4, 0xf5, 0xe5, 0x0f, 0xfa,
  0xe1, 0x2c, 0xfd, 0xcc, 0xf2, 0xf3, 0x23, 0xf1, 0x1c, 0x50, 0x06, 0xea,
  0xe9, 0xcd, 0x13, 0xea, 0x06, 0xfd, 0xef, 0xe7, 0xdb, 0x00, 0xf2, 0xea,
  0xe5, 0x19, 0xfa, 0xbb, 0x0e, 0x00, 0x20, 0xf6, 0x26, 0xd9, 0xc5, 0xf2,
  0xca, 0xf6, 0xf4, 0xe9, 0x22, 0x04, 0xcd, 0xf3, 0xdb, 0x02, 0xf6, 0x03,
  0xea, 0xde, 0xe3, 0xc6, 0x06, 0xea, 0xf4, 0x19, 0x19, 0xed, 0xfb, 0xca,
  0x24, 0xed, 0x14, 0xe3, 0x1d, 0xf8, 0xdd, 0xeb, 0xf5, 0xde, 0xf5, 0xe4,
  0x32, 0x21, 0xc8, 0xe7, 0xfb, 0xe1, 0x1e, 0xec, 0x19, 0x09, 0xba, 0xc9,
  0x04, 0x16, 0x02, 0xdc, 0x36, 0x14, 0x06, 0xfc, 0xdf, 0x14, 0xf6, 0x06,
  0x3a, 0xee, 0x04, 0x0a, 0xf9, 0x17, 0x0c, 0x2d, 0x2c, 0x14, 0xf2, 0xe2,
  0x02, 0xf4, 0x10, 0x28, 0x1c, 0x1c, 0x11, 0xf3, 0xee, 0xe8, 0x08, 0x00,
  0x02, 0x22, 0x00, 0x0c, 0x0c, 0x2b, 0x07, 0x1d, 0x1b, 0x46, 0xe0, 0x11,
  0xef, 0x08, 0x16, 0x16, 0x19, 0x26, 0xeb, 0xe6, 0x26, 0xe9, 0xfb, 0xf5,
  0x1b, 0x35, 0xe3, 0x0b, 0x13, 0xf6, 0xee, 0x1b, 0x0c, 0x22, 0xd7, 0x06,
  0xd4, 0xf5, 0x20, 0x30, 0x37, 0x01, 0x1a, 0xf0, 0x2e, 0xe6, 0x17, 0x1b,
  0x15, 0x03, 0x10, 0xdf, 0xf5, 0x06, 0xf5, 0xef, 0x39, 0xf1, 0xe6, 0xd8,
  0x28, 0x04, 0xd7, 0x2c, 0x0b, 0x33, 0xe9, 0xf1, 0xcd, 0xcb, 0xee, 0x18,
  0x00, 0x2e, 0xcd, 0xbc, 0xca, 0xcf, 0xf0, 0x01, 0xdc, 0x11, 0xda, 0xd8,
  0xd9, 0xbe, 0x25, 0x1e, 0xe4, 0x33, 0xcf, 0xe8, 0xd0, 0xdf, 0xdd, 0x64,
  0xfb, 0x4e, 0xba, 0xed, 0xf8, 0xca, 0x00, 0x28, 0xd2, 0x37, 0xd7, 0xe6,
  0xf8, 0xe9, 0xef, 0x3b, 0x14, 0x27, 0xc2, 0xc3, 0xea, 0xc6, 0x0b, 0x48,
  0xea, 0x2c, 0xd0, 0xfe, 0x01, 0xd3, 0xe8, 0x38, 0x00, 0x3e, 0xe4, 0xda,
  0xff, 0xc6, 0xde, 0x29, 0x0d, 0x31, 0xf6, 0xc7, 0x0d, 0xef, 0xed, 0x43,
  0x0a, 0x49, 0xf3, 0xe2, 0x05, 0xd6, 0xd3, 0x38, 0x04, 0x4b, 0xcf, 0xdf,
  0x05, 0xd8, 0xda, 0x4a, 0xf9, 0x31, 0xfd, 0xfd, 0xe1, 0xab, 0xef, 0x41,
  0x1c, 0x15, 0xba, 0xf6, 0xdc, 0xfc, 0xe8, 0x54, 0x22, 0x2f, 0xcd, 0xd7,
  0x14, 0x21, 0xe9, 0x2d, 0x1b, 0x2e, 0x0e, 0x03, 0x1c, 0x31, 0xc9, 0x02,
  0x30, 0xed, 0x01, 0x0a, 0x1e, 0x1d, 0xfc, 0xfa, 0x1e, 0xf2, 0x0b, 0xf6,
  0x00, 0xe5, 0xd3, 0x0a, 0x05, 0x1d, 0xfc, 0x1d, 0x0c, 0x06, 0xd1, 0xfb,
  0xfe, 0x17, 0x27, 0x0e, 0x1f, 0x0a, 0xd8, 0xf4, 0x19, 0x2b, 0x1c, 0x0c,
  0x02, 0xfb, 0x0e, 0x0d, 0x03, 0xf8, 0x11, 0x07, 0x06, 0x27, 0xcb, 0x03,
  0x04, 0x10, 0x09, 0x36, 0xf8, 0x0c, 0xcf, 0x15, 0xf2, 0x06, 0x1a, 0x0b,
  0xe5, 0x29, 0xd9, 0x1c, 0x1e, 0xe4, 0xf8, 0x2c, 0xf3, 0xf9, 0xdd, 0xec,
  0x24, 0xee, 0x1a, 0x26, 0x1e, 0xec, 0xfc, 0xe9, 0x05, 0x15, 0xf2, 0x1a,
  0xe6, 0x25, 0x13, 0xc6, 0x09, 0xea, 0x36, 0x35, 0x3d, 0x39, 0xd5, 0x05,
  0xee, 0xf7, 0xe3, 0x17, 0xf6, 0x06, 0xfc, 0x09, 0x08, 0xdd, 0x28, 0x37,
  0x1c, 0x2c, 0x03, 0xf6, 0xef, 0xde, 0x24, 0xfd, 0x18, 0x22, 0xf9, 0xf3,
  0xfe, 0xf6, 0xf2, 0x1e, 0xf5, 0x30, 0xdc, 0xea, 0x1b, 0xce, 0x48, 0xfa,
  0x07, 0x11, 0xd1, 0xc9, 0x0b, 0x0b, 0x2a, 0x2e, 0x19, 0x20, 0xfb, 0xf0,
  0xf1, 0xe4, 0x03, 0x0e, 0xec, 0x10, 0x19, 0xf8, 0x1c, 0x0e, 0x02, 0x23,
  0xf7, 0x24, 0x09, 0xf1, 0x12, 0xcb, 0x10, 0x10, 0x20, 0xf7, 0xe1, 0xd5,
  0x04, 0xee, 0x0f, 0x0b, 0x0e, 0x14, 0xcb, 0xd5, 0xf9, 0xdb, 0x03, 0x03,
  0xff, 0xed, 0x05, 0xfb, 0x02, 0xcf, 0xf0, 0x2a, 0xe2, 0x0f, 0xf5, 0x12,
  0x1e, 0x05, 0x0e, 0x16, 0xd9, 0x33, 0xc8, 0x29, 0x00, 0xdd, 0x0e, 0x3a,
  0x03, 0xfc, 0xd5, 0xeb, 0xe6, 0x18, 0x2c, 0x09, 0x09, 0x00, 0xdc, 0xe8,
  0xf2, 0x0f, 0x11, 0xe2, 0x00, 0xf9, 0xc9, 0xe7, 0x05, 0xeb, 0x1b, 0xf1,
  0xe8, 0x04, 0xc4, 0x0c, 0xf7, 0xf2, 0x1e, 0x34, 0xe5, 0x02, 0x02, 0xe5,
  0xe3, 0xe9, 0xef, 0x2e, 0xe7, 0xdc, 0xbb, 0x14, 0xc7, 0x1d, 0x17, 0xef,
  0x0f, 0xda, 0xc6, 0xf5, 0xe7, 0xe7, 0x17, 0x1e, 0xf8, 0x20, 0xdd, 0x3e,
  0xce, 0xef, 0x27, 0xfb, 0x3d, 0x08, 0xd6, 0xe7, 0xe1, 0xf5, 0x2f, 0x25,
  0x0c, 0x02, 0xf2, 0xeb, 0xd6, 0x26, 0x04, 0x08, 0x27, 0xfd, 0xc5, 0x1e,
  0xe3, 0x11, 0xf6, 0xed, 0xef, 0xf7, 0x55, 0x2d, 0xd0, 0xda, 0x2d, 0x3e,
  0x1e, 0xf9, 0x1c, 0x09, 0xeb, 0xf1, 0x28, 0xf3, 0x10, 0xfe, 0x4d, 0x09,
  0xe8, 0x06, 0x37, 0xfc, 0x15, 0x11, 0x2a, 0x13, 0x08, 0xd7, 0x3c, 0x1f,
  0xd7, 0xd8, 0x35, 0x01, 0x12, 0xdf, 0x25, 0x29, 0x05, 0xfc, 0x42, 0x19,
  0x01, 0xd5, 0x26, 0x25, 0xee, 0xf0, 0x33, 0x1e, 0xc6, 0xc1, 0x1a, 0x0c,
  0x0b, 0xf9, 0x46, 0x01, 0xdf, 0x11, 0x0d, 0x0e, 0xeb, 0xf7, 0x58, 0x22,
  0xcc, 0x05, 0x01, 0x19, 0x22, 0x11, 0x2e, 0x24, 0xe7, 0xab, 0x39, 0x11,
  0x04, 0x08, 0x36, 0x27, 0xe9, 0xd7, 0x1f, 0x29, 0xf2, 0xde, 0x32, 0x0e,
  0xcb, 0xdf, 0x0f, 0x1c, 0x14, 0x00, 0x2a, 0x04, 0xc6, 0xf3, 0x0b, 0xea,
  0x07, 0xc5, 0x2d, 0xf5, 0xfa, 0x19, 0xfe, 0xd8, 0xfd, 0xc8, 0xfe, 0xd5,
  0x07, 0xc7, 0xc3, 0xe9, 0xf7, 0xc7, 0xfe, 0xde, 0xdf, 0xc4, 0x07, 0xe8,
  0xdc, 0xd9, 0x37, 0x0c, 0xea, 0xdc, 0xd9, 0xb7, 0xda, 0xc8, 0x08, 0xc7,
  0x00, 0xf4, 0xf2, 0xf3, 0xfb, 0xd1, 0x35, 0xf4, 0x00, 0xfe, 0x08, 0xf0,
  0xd9, 0x12, 0x21, 0xd3, 0xda, 0xf5, 0xfe, 0xb6, 0xee, 0xdf, 0x33, 0xc9,
  0xdb, 0xed, 0x15, 0xfb, 0xca, 0xe5, 0x1a, 0xd2, 0xef, 0xc2, 0xf3, 0xc0,
  0xe9, 0xf0, 0x34, 0xf2, 0xed, 0xc9, 0xf9, 0xc2, 0xca, 0x1c, 0x3a, 0xe9,
  0xd1, 0xd3, 0xe3, 0xe9, 0xdb, 0x1e, 0xee, 0xef, 0x02, 0x17, 0xff, 0xc7,
  0xc4, 0x02, 0x09, 0x13, 0xe6, 0x38, 0xdf, 0xe5, 0xdd, 0xe4, 0xde, 0xf9,
  0xce, 0xd8, 0xda, 0xee, 0xf5, 0xcc, 0xf9, 0xf3, 0xfa, 0xed, 0xef, 0xff,
  0xd9, 0xf9, 0x2f, 0xf4, 0xbe, 0xe9, 0xd3, 0x0e, 0xd9, 0xb2, 0xf6, 0x10,
  0xc3, 0xf4, 0x28, 0x11, 0xe9, 0xe3, 0x18, 0xf5, 0xf2, 0xc8, 0xe2, 0xf9,
  0xf8, 0xd0, 0xf9, 0x09, 0xbe, 0xf4, 0xe8, 0xed, 0xd0, 0xbb, 0x26, 0xf9,
  0xd9, 0xcb, 0xf3, 0xe0, 0xcf, 0xc7, 0x2d, 0x0d, 0xbe, 0xcb, 0xeb, 0x1f,
  0xed, 0xfa, 0xf8, 0x05, 0xc3, 0xf4, 0xf0, 0x1c, 0xf6, 0xe2, 0xfb, 0x00,
  0xd2, 0xe3, 0x23, 0x22, 0xda, 0xb1, 0x13, 0x09, 0xdd, 0xf5, 0xe2, 0xe2,
  0xdb, 0xf0, 0x24, 0x14, 0xc6, 0xc8, 0x02, 0x14, 0x15, 0xe4, 0xed, 0x09,
  0xf5, 0xd4, 0x05, 0x12, 0x14, 0x16, 0x1b, 0xf7, 0x03, 0x08, 0x36, 0xe6,
  0xed, 0xfa, 0xf1, 0x1a, 0x10, 0x05, 0x10, 0x33, 0xe9, 0x26, 0xef, 0x03,
  0x20, 0x2b, 0x11, 0x19, 0xfa, 0xd8, 0x01, 0x20, 0xfd, 0xf0, 0x22, 0x33,
  0x12, 0xff, 0x0b, 0x10, 0x18, 0x04, 0x24, 0x3b, 0x1f, 0x06, 0x12, 0x20,
  0xcd, 0xf6, 0x37, 0xfa, 0xf2, 0xf0, 0xed, 0xee, 0x19, 0xf8, 0x31, 0x2b,
  0x14, 0x0e, 0x0a, 0x06, 0x29, 0xf6, 0x20, 0xfd, 0x17, 0xfe, 0x0c, 0xdf,
  0x28, 0xf6, 0x3a, 0x31, 0xfe, 0xeb, 0x05, 0x2c, 0x17, 0x24, 0x16, 0x27,
  0x38, 0x23, 0xec, 0x1e, 0x18, 0xf4, 0xf1, 0x29, 0x1b, 0x0b, 0xed, 0x02,
  0xe4, 0x04, 0x3b, 0x02, 0x30, 0x05, 0xe5, 0xf8, 0x1f, 0x01, 0x1a, 0x0b,
  0xfb, 0x06, 0xeb, 0xec, 0x16, 0x0c, 0x05, 0x17, 0x0a, 0x11, 0xce, 0xe8,
  0xef, 0xe7, 0x34, 0x3b, 0xfc, 0x07, 0x00, 0x07, 0xf4, 0xe0, 0xe9, 0xf3,
  0x22, 0x39, 0xd5, 0xff, 0xf2, 0x10, 0xfd, 0x0b, 0xfd, 0x14, 0xb9, 0xf0,
  0xf7, 0x39, 0x29, 0x20, 0x14, 0x2d, 0xec, 0x06, 0x2d, 0x02, 0xe9, 0x00,
  0x16, 0x37, 0xc6, 0x09, 0x1a, 0x0c, 0xf8, 0x2c, 0x16, 0x3d, 0xfb, 0x07,
  0x09, 0xf9, 0xf8, 0x0e, 0x0d, 0x20, 0xd4, 0x11, 0x0d, 0xe6, 0xe6, 0xdf,
  0x1f, 0xea, 0xc8, 0xda, 0xfc, 0x35, 0x04, 0x16, 0xd5, 0xe3, 0xfa, 0xf7,
  0x15, 0x0d, 0xf8, 0x25, 0x01, 0x00, 0xe5, 0x1e, 0xdf, 0xf7, 0xff, 0x08,
  0xf6, 0xdf, 0xf4, 0x05, 0xf1, 0xe9, 0xd8, 0x12, 0x20, 0xd6, 0xd2, 0x25,
  0x10, 0x12, 0x06, 0xd9, 0xe8, 0xe3, 0x11, 0x20, 0xe1, 0xb1, 0xf6, 0x07,
  0x10, 0xea, 0xec, 0xf6, 0xdb, 0xf4, 0x14, 0x1b, 0x03, 0xf2, 0xd5, 0x24,
  0xfe, 0x18, 0x02, 0x0b, 0xd4, 0xf0, 0xb5, 0x1d, 0xe6, 0x14, 0x00, 0xf8,
  0xf8, 0xf9, 0xe6, 0x1b, 0xd3, 0x0e, 0x14, 0xfd, 0x1c, 0xfb, 0xfd, 0x0d,
  0x0f, 0x15, 0x11, 0x06, 0xf0, 0xe7, 0xdf, 0xff, 0xe5, 0x24, 0x0e, 0xfe,
  0xf1, 0x10, 0xf1, 0x25, 0xeb, 0x07, 0xf1, 0x2a, 0xf8, 0xcd, 0xe0, 0x22,
  0x14, 0xef, 0xcf, 0xf0, 0xd9, 0xd9, 0xa2, 0x25, 0x12, 0x19, 0xf3, 0xe0,
  0x07, 0x23, 0xd2, 0xfa, 0x34, 0x32, 0xd8, 0x07, 0xf6, 0x13, 0xcc, 0xfb,
  0x03, 0x2e, 0x1f, 0x20, 0x05, 0xf9, 0xb8, 0x22, 0xe6, 0x1b, 0x2b, 0x32,
  0x08, 0xed, 0xe8, 0xfd, 0x0b, 0xf1, 0xfd, 0x0f, 0x11, 0x03, 0xe5, 0xef,
  0x0a, 0x14, 0x0f, 0x3d, 0x12, 0x13, 0xc2, 0xf2, 0x1e, 0x0a, 0xff, 0x1b,
  0xfe, 0x3f, 0xf3, 0x19, 0x1f, 0x12, 0xe6, 0x0e, 0x09, 0x23, 0xb5, 0x08,
  0xe7, 0x2c, 0x23, 0x27, 0xeb, 0x36, 0xdb, 0x0b, 0x03, 0x0f, 0x33, 0xf9,
  0xec, 0x26, 0xf8, 0x07, 0x01, 0x0c, 0xdd, 0x25, 0x1e, 0x23, 0xe8, 0x1a,
  0xfb, 0x0d, 0xf7, 0x14, 0x0b, 0x1e, 0xff, 0x0c, 0xd0, 0x06, 0xe9, 0xed,
  0x2c, 0x20, 0x0e, 0xbd, 0xee, 0x21, 0x1d, 0x21, 0x0d, 0x2c, 0xfb, 0xe6,
  0x08, 0xcf, 0x23, 0x0d, 0x07, 0x0d, 0xf5, 0xd9, 0x02, 0x08, 0x11, 0x14,
  0x0e, 0x2a, 0xff, 0xe0, 0xe3, 0x0f, 0xef, 0x48, 0xf2, 0x1b, 0xf0, 0xd7,
  0x00, 0x02, 0xf5, 0x19, 0x08, 0x21, 0xd2, 0x14, 0xf9, 0xfc, 0x29, 0x39,
  0x07, 0x0e, 0xe6, 0xf3, 0x14, 0xdc, 0x13, 0x10, 0x0b, 0x1d, 0xe6, 0x00,
  0xfa, 0xd7, 0x1c, 0x40, 0xee, 0x2b, 0x06, 0xda, 0x0e, 0xfc, 0x01, 0x1b,
  0x2d, 0xfc, 0x10, 0xe5, 0x18, 0xef, 0xfc, 0x28, 0x1b, 0x09, 0xc4, 0x06,
  0x0d, 0xf2, 0xf3, 0x0d, 0xf8, 0x19, 0xef, 0xe4, 0xe9, 0xe3, 0x12, 0x47,
  0xfc, 0x08, 0xfa, 0xef, 0x16, 0xe5, 0x1d, 0x17, 0xef, 0x1f, 0xd5, 0xec,
  0x1d, 0xcc, 0xf1, 0xff, 0xf7, 0x0c, 0xce, 0xf9, 0xfb, 0xdc, 0x02, 0xf1,
  0xec, 0xf7, 0xb9, 0x13, 0xfd, 0x0d, 0x1b, 0xf6, 0x0d, 0x1c, 0xd4, 0xea,
  0xe8, 0x36, 0x17, 0x2a, 0x21, 0x07, 0xef, 0x00, 0xec, 0xca, 0xed, 0x0d,
  0x1d, 0x0e, 0xcd, 0x1a, 0xed, 0xe3, 0xdb, 0xf0, 0xd6, 0x04, 0xda, 0xd3,
  0xd6, 0xcc, 0xfc, 0xfa, 0x08, 0x11, 0xe1, 0x0c, 0xf0, 0xe6, 0xf8, 0x1c,
  0x0c, 0x0c, 0xeb, 0xde, 0xf5, 0xdd, 0xff, 0x13, 0xfc, 0xee, 0xcc, 0xe2,
  0x01, 0x09, 0x15, 0x20, 0x1a, 0x2c, 0xd0, 0xef, 0xf2, 0xfb, 0x16, 0x2b,
  0xfc, 0xea, 0xfe, 0xf5, 0xf7, 0x0d, 0x18, 0x2a, 0xf4, 0x23, 0x08, 0x1f,
  0xc4, 0x13, 0xf1, 0xfb, 0xf7, 0xe2, 0x30, 0xf8, 0xf6, 0x10, 0xe0, 0xcf,
  0xd9, 0xef, 0x15, 0x0b, 0x10, 0xdf, 0x02, 0xf0, 0xd1, 0x17, 0x1f, 0x0e,
  0xf9, 0xf8, 0xfc, 0xd0, 0xe3, 0xcb, 0x05, 0x14, 0xc3, 0x02, 0xe2, 0xe5,
  0xc1, 0xf2, 0x38, 0xf7, 0xea, 0x1c, 0x15, 0xfa, 0xf6, 0x09, 0x0f, 0x07,
  0xc5, 0xf8, 0xf6, 0xf0, 0xd1, 0x02, 0x30, 0xed, 0xf1, 0xdf, 0xf4, 0x02,
  0xd9, 0xe7, 0x30, 0x08, 0x0b, 0xf6, 0x11, 0x07, 0xd4, 0x18, 0x35, 0xf1,
  0xc6, 0xdd, 0x08, 0xf0, 0xdd, 0x15, 0x26, 0x06, 0x1e, 0xdf, 0xdd, 0xe9,
  0xdc, 0xff, 0x18, 0xdf, 0xdd, 0xed, 0xd5, 0xce, 0x0b, 0xfc, 0x1d, 0x0a,
  0xe3, 0xe1, 0xff, 0xca, 0xd4, 0xe6, 0x4a, 0xbc, 0xe5, 0xd6, 0xcf, 0xf9,
  0xcf, 0x0c, 0x18, 0xee, 0xec, 0x21, 0x08, 0xdf, 0x1b, 0x07, 0x31, 0x27,
  0xe1, 0xf7, 0x00, 0x0b, 0x00, 0x00, 0x32, 0x09, 0x08, 0xd1, 0xf9, 0xfd,
  0xe4, 0xd1, 0x05, 0x1f, 0x05, 0xde, 0x0c, 0xd9, 0xcc, 0xfd, 0x0a, 0x10,
  0xf3, 0xf3, 0xef, 0xcc, 0xeb, 0xe0, 0x0b, 0xfb, 0x0c, 0xe1, 0xf5, 0x0c,
  0xe7, 0xdd, 0x30, 0xff, 0xc8, 0x33, 0x17, 0xed, 0xd8, 0xdc, 0x41, 0xf1,
  0xbb, 0xe2, 0xf8, 0xe2, 0xe2, 0xe9, 0x53, 0xc9, 0xf0, 0x0d, 0x1d, 0x0f,
  0xf3, 0xdf, 0x3c, 0xfe, 0x08, 0x08, 0xf7, 0xec, 0x08, 0xed, 0x2f, 0x05,
  0xfa, 0xf0, 0x02, 0x07, 0x05, 0xce, 0x04, 0xf3, 0x11, 0xf5, 0xc3, 0xee,
  0xb1, 0x09, 0xfb, 0x0f, 0x18, 0x3c, 0x17, 0x2f, 0x0d, 0x1b, 0x13, 0x24,
  0xfc, 0xf0, 0xdb, 0x13, 0xe8, 0xf3, 0x22, 0x1f, 0xfa, 0x01, 0xe2, 0x20,
  0xe0, 0xd5, 0xfe, 0xfd, 0x1a, 0x1d, 0xef, 0x08, 0xf5, 0xc8, 0x0a, 0x40,
  0x0c, 0xe1, 0x04, 0x03, 0x0a, 0x0b, 0x03, 0x30, 0xf7, 0x3e, 0xf4, 0xff,
  0xe3, 0xf1, 0xe8, 0xe5, 0x0a, 0x04, 0x06, 0x10, 0xd8, 0x08, 0x01, 0x32,
  0xce, 0xf5, 0x24, 0xfe, 0x07, 0xd3, 0xe6, 0x30, 0x09, 0x0b, 0xf9, 0xf5,
  0xe2, 0xde, 0x0a, 0x1e, 0xf6, 0x0a, 0xf9, 0x0f, 0xe2, 0x0a, 0xf7, 0x0a,
  0xde, 0x35, 0x0a, 0x1f, 0xe9, 0x01, 0x03, 0x28, 0xed, 0x24, 0xf5, 0x07,
  0x15, 0xdf, 0x2a, 0x09, 0xce, 0x12, 0x25, 0x2f, 0x19, 0xf6, 0xf2, 0x1d,
  0xf5, 0xfd, 0x0c, 0x07, 0xe6, 0x22, 0x1b, 0x07, 0xf3, 0x13, 0xec, 0xf4,
  0xd4, 0x11, 0xf9, 0xdc, 0x1d, 0x0d, 0xe8, 0xf2, 0x14, 0xdd, 0x1a, 0xff,
  0x0e, 0x1b, 0x04, 0xf1, 0x04, 0xf6, 0xe8, 0x09, 0xf0, 0xfa, 0xd8, 0xfc,
  0xdc, 0x25, 0xf7, 0x13, 0x12, 0xcd, 0x08, 0xd3, 0x13, 0xf8, 0x05, 0x1d,
  0x1a, 0x0e, 0x0b, 0xfc, 0xd6, 0x16, 0x0a, 0x1e, 0x13, 0xde, 0x08, 0x08,
  0xe8, 0xf5, 0xd4, 0xe1, 0x07, 0x05, 0x14, 0xcd, 0x11, 0xf2, 0xd5, 0xf2,
  0xdf, 0xee, 0xe8, 0x22, 0xf6, 0x14, 0xd1, 0x21, 0x13, 0x0d, 0xd6, 0x06,
  0xe7, 0x1e, 0x26, 0xf1, 0x15, 0x0b, 0xd3, 0x0c, 0xd6, 0xe1, 0xfe, 0xe5,
  0x12, 0xf6, 0xea, 0xf7, 0x05, 0xde, 0x18, 0x14, 0x09, 0xd8, 0xe2, 0x11,
  0x12, 0x10, 0x01, 0x23, 0xfc, 0xe8, 0xf4, 0x07, 0x06, 0xfc, 0xec, 0x07,
  0x0f, 0xf5, 0x18, 0x05, 0x1f, 0xf5, 0xf5, 0xe2, 0xfd, 0xcf, 0x12, 0xd3,
  0xf5, 0xd6, 0xd7, 0xf9, 0xfb, 0x10, 0x1b, 0xfc, 0xe5, 0x1d, 0xf5, 0xf8,
  0xff, 0x27, 0xd4, 0xe5, 0xec, 0x11, 0xf9, 0x13, 0xf2, 0x0d, 0x0b, 0xf4,
  0x14, 0xe3, 0xef, 0xd8, 0x09, 0xe0, 0x16, 0xdd, 0xd3, 0xe8, 0xe7, 0x11,
  0xe5, 0xfb, 0x0d, 0xfc, 0xee, 0x0f, 0x18, 0xda, 0xf1, 0x0f, 0xf2, 0xe1,
  0x12, 0xf3, 0xf3, 0xfe, 0xf4, 0xdb, 0x1a, 0x17, 0xfc, 0xf9, 0xf3, 0x00,
  0x0f, 0xee, 0xff, 0xdd, 0xfd, 0x1e, 0xe0, 0xfe, 0x14, 0xda, 0x09, 0x19,
  0xfb, 0xd8, 0xfe, 0xf5, 0x27, 0xda, 0xda, 0x17, 0x1e, 0x08, 0xdc, 0x18,
  0xeb, 0xd1, 0x17, 0xfe, 0xf8, 0x09, 0x09, 0xf4, 0xeb, 0xf9, 0x1b, 0x00,
  0xd9, 0x25, 0xe1, 0xe1, 0xf4, 0x16, 0x0e, 0xdc, 0xdb, 0x1e, 0xf3, 0x08,
  0xd8, 0x07, 0xf3, 0x19, 0xe9, 0x09, 0x0d, 0xd7, 0xdb, 0xe3, 0x0b, 0xe6,
  0x0e, 0x1e, 0x1c, 0x0b, 0xea, 0x13, 0xeb, 0x18, 0xdc, 0x17, 0x09, 0x07,
  0x17, 0xf8, 0xf9, 0xe3, 0xfb, 0x1f, 0xf5, 0x01, 0xef, 0x18, 0xec, 0xe0,
  0xf2, 0xf8, 0xdd, 0xfe, 0xe2, 0x10, 0xf5, 0xe9, 0xe3, 0x05, 0xf9, 0x10,
  0x0a, 0x21, 0xd5, 0x1b, 0xe4, 0x15, 0x1a, 0xee, 0xf0, 0xea, 0x1b, 0x08,
  0x3b, 0xf1, 0xe4, 0x40, 0x12, 0x0f, 0x07, 0x20, 0x1b, 0x26, 0xee, 0x11,
  0x06, 0x03, 0x23, 0x22, 0x14, 0x00, 0xda, 0x31, 0xff, 0x1b, 0x22, 0x20,
  0x06, 0x00, 0xf7, 0x31, 0x15, 0x1e, 0x21, 0x30, 0x14, 0x17, 0x15, 0x17,
  0x16, 0xf6, 0x00, 0x5b, 0x41, 0xfb, 0xef, 0x22, 0x10, 0xe3, 0x0c, 0x25,
  0xf8, 0x27, 0x0c, 0x15, 0xfd, 0x4d, 0x26, 0x44, 0x26, 0x04, 0x0a, 0x57,
  0xe2, 0x02, 0xee, 0x23, 0x39, 0x18, 0xfd, 0x1f, 0x02, 0x06, 0x12, 0x1b,
  0xf8, 0xf9, 0x03, 0x16, 0x06, 0x3c, 0x31, 0x18, 0x43, 0x38, 0x00, 0x3e,
  0x12, 0xf5, 0xf5, 0x3d, 0x33, 0xec, 0xeb, 0x3c, 0xde, 0x1c, 0x06, 0x1a,
  0xf9, 0xed, 0x1a, 0xe6, 0x4f, 0x1c, 0x29, 0x52, 0x15, 0x23, 0xe9, 0x37,
  0x2d, 0x18, 0x1d, 0x16, 0x38, 0xfa, 0x06, 0x11, 0x2c, 0x3f, 0x1f, 0x1f,
  0x00, 0x12, 0x08, 0x21, 0x48, 0x23, 0x1c, 0x0d, 0x38, 0x2e, 0xe1, 0x0d,
  0xed, 0x1b, 0x36, 0x14, 0x13, 0xee, 0x02, 0xe8, 0x1f, 0xf8, 0x25, 0x10,
  0x3d, 0x05, 0xd4, 0x12, 0x16, 0x17, 0x22, 0x25, 0x32, 0x42, 0x07, 0x06,
  0x33, 0x22, 0x10, 0x44, 0x17, 0xef, 0xed, 0xf4, 0x34, 0x37, 0x1a, 0x27,
  0xf6, 0xeb, 0xe0, 0x27, 0x08, 0x17, 0x29, 0x0a, 0x1a, 0x30, 0x02, 0x0f,
  0x1b, 0x30, 0x42, 0x3d, 0x2c, 0x14, 0xf3, 0xfe, 0x46, 0x04, 0x33, 0x21,
  0x13, 0xfc, 0x16, 0x39, 0x03, 0xfe, 0x33, 0x28, 0x0d, 0x4e, 0xf5, 0xd9,
  0xef, 0xe1, 0x20, 0x06, 0x3f, 0x23, 0xe5, 0xdc, 0x20, 0x3c, 0x01, 0x1a,
  0x26, 0x0d, 0xf2, 0xeb, 0x25, 0x47, 0x02, 0x1e, 0x13, 0x18, 0xd2, 0xcb,
  0x20, 0xff, 0xed, 0x2c, 0x2b, 0x23, 0xe5, 0xf4, 0x08, 0x0d, 0xf7, 0x0c,
  0x27, 0xfe, 0xd6, 0xf7, 0x16, 0x39, 0xf0, 0x0d, 0x27, 0x3e, 0xfb, 0xc6,
  0x27, 0xe9, 0xf4, 0x26, 0x1e, 0x31, 0xec, 0xfc, 0x29, 0x3a, 0xf7, 0x1b,
  0x11, 0x0b, 0xf0, 0xeb, 0xeb, 0x2d, 0xf7, 0x31, 0x1d, 0x0f, 0xe2, 0xfe,
  0x37, 0xef, 0xe3, 0xf5, 0x0c, 0x19, 0xe1, 0x12, 0x35, 0x2a, 0x13, 0x0b,
  0x42, 0x41, 0xe1, 0xd7, 0x17, 0x00, 0x13, 0x27, 0x39, 0x30, 0xe9, 0xe3,
  0xfc, 0x1e, 0xf9, 0x02, 0x04, 0x1e, 0x09, 0x1d, 0x13, 0x26, 0x19, 0x25,
  0xeb, 0x24, 0xf4, 0xfe, 0x0d, 0x31, 0x19, 0xfd, 0x24, 0x11, 0xea, 0x04,
  0x2c, 0xf6, 0xd5, 0x1d, 0xe4, 0x09, 0xe8, 0x12, 0xf7, 0x31, 0x02, 0x03,
  0xe7, 0x11, 0x01, 0x0e, 0x23, 0x33, 0x13, 0x13, 0x23, 0xdf, 0xfc, 0xe8,
  0x23, 0x2f, 0x05, 0x18, 0x15, 0x05, 0x08, 0xf6, 0x0a, 0x14, 0x16, 0x1a,
  0xff, 0x03, 0x01, 0xe4, 0x0a, 0x4b, 0x2d, 0x1b, 0x23, 0xed, 0xe1, 0x1d,
  0xde, 0x2b, 0x24, 0xf8, 0xe2, 0xf7, 0x0c, 0x16, 0xfa, 0x11, 0x3d, 0x16,
  0xeb, 0x18, 0x18, 0x2d, 0x00, 0xe0, 0x04, 0xf6, 0xec, 0xfd, 0x0e, 0xf1,
  0xf7, 0x23, 0x18, 0x1b, 0xd6, 0x0e, 0xf2, 0x05, 0x08, 0xf3, 0x1c, 0xe5,
  0x07, 0x28, 0xf8, 0x18, 0xf8, 0xfa, 0xf5, 0xf8, 0x0b, 0x12, 0xed, 0xf5,
  0x2b, 0xf4, 0xe9, 0xec, 0x23, 0x08, 0xea, 0xe6, 0xde, 0xe1, 0xe9, 0x23,
  0xed, 0x01, 0xf0, 0x15, 0x16, 0xfb, 0x17, 0x00, 0x15, 0x12, 0xd3, 0x0f,
  0xf3, 0xf3, 0xea, 0xe7, 0x01, 0x0a, 0xe1, 0xe1, 0x1e, 0x14, 0x04, 0x0b,
  0x17, 0x12, 0xeb, 0xfe, 0xff, 0x08, 0x11, 0x01, 0x15, 0x2c, 0x08, 0xd1,
  0xeb, 0xfa, 0x09, 0x33, 0x3d, 0x25, 0x05, 0x13, 0x0a, 0xe7, 0x13, 0xe7,
  0x1d, 0x0d, 0x16, 0xfe, 0x0d, 0xf9, 0x09, 0xf4, 0xec, 0xf2, 0x0e, 0xfe,
  0x21, 0xe2, 0x0e, 0x02, 0xee, 0xf6, 0x12, 0x1e, 0x2d, 0xf1, 0x0b, 0x22,
  0xc4, 0x13, 0xd6, 0x39, 0xe9, 0x38, 0xde, 0xe1, 0xe0, 0xdc, 0x0e, 0x20,
  0xf3, 0x1b, 0x06, 0xfe, 0x15, 0xed, 0xca, 0x49, 0xf7, 0x2d, 0x11, 0x21,
  0x1d, 0xb8, 0x0a, 0x35, 0x15, 0x31, 0xfd, 0x03, 0x1d, 0xf6, 0xcf, 0x1b,
  0xfa, 0x1f, 0x09, 0x0d, 0x10, 0xb8, 0xd6, 0x32, 0xdf, 0x2b, 0x00, 0xe6,
  0xd4, 0xe9, 0xe4, 0x2f, 0x02, 0x3e, 0x0c, 0xee, 0xea, 0xd4, 0xe0, 0x3f,
  0xef, 0x28, 0x08, 0xe7, 0xe7, 0xd0, 0xd5, 0x59, 0x06, 0x10, 0xee, 0xfe,
  0x05, 0xd2, 0xeb, 0x3a, 0x02, 0x14, 0x03, 0x09, 0x13, 0xd6, 0xcd, 0x4c,
  0xc9, 0x1e, 0xe8, 0x0e, 0xdb, 0xf9, 0xe2, 0x46, 0xef, 0xfb, 0xe2, 0x20,
  0xde, 0xd8, 0xe4, 0x7f, 0xfe, 0x07, 0xde, 0x1d, 0x10, 0x18, 0xfc, 0x00,
  0xfd, 0x2e, 0x0a, 0x08, 0x27, 0x1b, 0xd7, 0xfd, 0x25, 0xdf, 0xff, 0x0b,
  0x18, 0x0a, 0xed, 0x21, 0x00, 0xfd, 0xf9, 0xfb, 0x30, 0xf7, 0xd9, 0x13,
  0x08, 0x10, 0x1b, 0x2d, 0xeb, 0x09, 0xfe, 0x08, 0xe1, 0xe6, 0xff, 0x2e,
  0xea, 0x26, 0xd1, 0x15, 0x27, 0x00, 0x2a, 0x1f, 0x1d, 0x08, 0xfb, 0x0f,
  0x07, 0x0a, 0xe0, 0x1d, 0x11, 0x25, 0xf3, 0x08, 0xe9, 0x22, 0x27, 0x1b,
  0xe1, 0xf1, 0xf4, 0xee, 0xee, 0xf5, 0x26, 0x0b, 0x1d, 0xf4, 0xd2, 0x02,
  0x07, 0xf2, 0x1d, 0x23, 0xf3, 0x02, 0xee, 0xf4, 0x02, 0x1e, 0x19, 0xf9,
  0x13, 0xf9, 0x1a, 0xfc, 0x01, 0x13, 0x04, 0x2d, 0x2b, 0x0a, 0xda, 0xcd,
  0xef, 0x0a, 0x26, 0x0b, 0x3f, 0x3e, 0xf7, 0x0f, 0xed, 0xf3, 0x25, 0x09,
  0x05, 0x17, 0xf3, 0x18, 0x12, 0xf9, 0x09, 0x29, 0xfa, 0x09, 0xe9, 0xe9,
  0xf5, 0x07, 0x32, 0x20, 0x20, 0x36, 0x19, 0xef, 0xe9, 0x05, 0x2e, 0x1a,
  0xf5, 0x10, 0xd0, 0xd2, 0x1b, 0xda, 0x26, 0x1e, 0x03, 0x3a, 0x0a, 0xe0,
  0xeb, 0xdc, 0x00, 0x30, 0x0a, 0x00, 0x15, 0x00, 0xf3, 0xfc, 0x1b, 0x01,
  0x33, 0x09, 0xff, 0xdd, 0xf1, 0x16, 0xf8, 0x34, 0x07, 0x3f, 0xca, 0xfe,
  0x1a, 0x04, 0x09, 0x27, 0xfd, 0x01, 0xe0, 0xe3, 0xec, 0xe2, 0xfa, 0x29,
  0x0c, 0x18, 0xea, 0xe1, 0x0e, 0x0f, 0xef, 0x34, 0x28, 0x05, 0xd6, 0xd1,
  0xf5, 0xfb, 0x32, 0xf4, 0x13, 0x26, 0xc2, 0xf8, 0x18, 0x0b, 0xf1, 0xf4,
  0xfb, 0x00, 0xd5, 0xfe, 0xf5, 0xfb, 0xf0, 0x04, 0x1b, 0x13, 0xb0, 0x11,
  0xe7, 0xe4, 0x26, 0xff, 0x16, 0xf8, 0xc5, 0xf5, 0x09, 0xeb, 0x0f, 0x2c,
  0xef, 0x22, 0xd3, 0xf7, 0x00, 0xe4, 0x02, 0x3c, 0x26, 0xed, 0xe5, 0x0d,
  0xf1, 0x08, 0xf1, 0xed, 0x05, 0x1a, 0xdb, 0x18, 0xdc, 0xe1, 0xfa, 0x2b,
  0x16, 0x21, 0xc1, 0x14, 0xed, 0xf2, 0xee, 0xf7, 0xf5, 0x09, 0x0e, 0x21,
  0xd2, 0xfd, 0x00, 0x14, 0x16, 0x08, 0xd7, 0x12, 0xd6, 0x18, 0xfa, 0x10,
  0x19, 0x0a, 0xc6, 0x11, 0xd1, 0xde, 0xf5, 0x07, 0xe6, 0x1e, 0xb9, 0xfb,
  0xeb, 0x16, 0xef, 0xe9, 0x0f, 0x29, 0xc2, 0x11, 0xea, 0xf3, 0x11, 0x06,
  0xf0, 0xe5, 0x07, 0xe6, 0x08, 0x48, 0xf8, 0x0e, 0xfd, 0xc6, 0x07, 0x20,
  0x0d, 0x02, 0xf7, 0x09, 0xf8, 0xff, 0xf1, 0xfb, 0x1b, 0xf6, 0xec, 0x0c,
  0xef, 0xd8, 0x07, 0xf0, 0x17, 0x08, 0x04, 0xf4, 0x02, 0x0b, 0x05, 0x29,
  0x2f, 0x19, 0xc6, 0xc4, 0xf9, 0xff, 0xfe, 0x09, 0xf4, 0x00, 0x08, 0xd5,
  0x05, 0x0b, 0xe2, 0x0f, 0x0f, 0xf8, 0xf6, 0x16, 0x02, 0xf1, 0xfd, 0x1a,
  0x07, 0xfe, 0xf5, 0x08, 0xd7, 0xe3, 0xf7, 0x02, 0x06, 0xf7, 0xf1, 0xf8,
  0x1c, 0xd1, 0xf1, 0xf6, 0x12, 0x3d, 0x08, 0xeb, 0xf8, 0x0b, 0xda, 0x20,
  0xff, 0xd3, 0x0c, 0xfe, 0xd2, 0xee, 0x0d, 0x1a, 0xde, 0x24, 0xe9, 0xdc,
  0xe1, 0xd4, 0x13, 0xfd, 0x1f, 0x14, 0xd5, 0xfa, 0xf1, 0xf3, 0x08, 0x10,
  0x1a, 0x2f, 0xe1, 0xf6, 0x0f, 0xf8, 0xff, 0x2f, 0x0e, 0x05, 0x0b, 0xf0,
  0xeb, 0xe9, 0xff, 0x06, 0x3f, 0x44, 0xf5, 0x05, 0x0d, 0xf3, 0xf1, 0x36,
  0x2b, 0x20, 0xf2, 0xf5, 0xed, 0xfb, 0xe0, 0x39, 0x36, 0x26, 0xd4, 0xe9,
  0xfc, 0x10, 0x06, 0x3a, 0x41, 0x03, 0xdf, 0xe3, 0xea, 0xf1, 0x00, 0x41,
  0x23, 0x36, 0xfa, 0xd1, 0xf9, 0xbb, 0x16, 0x1b, 0x02, 0x30, 0xe3, 0xca,
  0x03, 0xfa, 0xe1, 0x32, 0xf0, 0x2d, 0xfa, 0xcf, 0xf1, 0xdd, 0x09, 0x16,
  0x46, 0x3d, 0x04, 0xc5, 0x02, 0xe5, 0x00, 0x39, 0x32, 0x24, 0xcb, 0xe3,
  0x02, 0xf0, 0x16, 0x07, 0xee, 0x2a, 0xf3, 0xcb, 0xf6, 0x03, 0xf5, 0x0f,
  0x24, 0x05, 0xfa, 0x15, 0x02, 0xfd, 0x08, 0x1e, 0x18, 0x18, 0xcd, 0xc7,
  0xe3, 0xf6, 0xd8, 0x34, 0x3b, 0x2b, 0xea, 0xfa, 0xf4, 0xd7, 0xf3, 0x05,
  0x10, 0x38, 0x10, 0x05, 0xf9, 0xc8, 0xd6, 0x37, 0x24, 0x30, 0xcc, 0xfb,
  0x0c, 0xf4, 0xca, 0x20, 0x44, 0x57, 0xd8, 0xf5, 0x01, 0xfa, 0xf8, 0x40,
  0x10, 0xf1, 0x0d, 0xda, 0x25, 0xed, 0xf1, 0x37, 0x42, 0x51, 0xfe, 0xda,
  0xe3, 0xf3, 0xd0, 0x40, 0x42, 0x24, 0xc7, 0x11, 0xf8, 0x1e, 0xd6, 0x0e,
  0x4e, 0x37, 0xe3, 0xdd, 0x09, 0xfa, 0x0e, 0x22, 0x1a, 0x3e, 0xee, 0x00,
  0xe1, 0xfe, 0xf1, 0x2a, 0xfd, 0x3f, 0xc5, 0x0d, 0x19, 0xd4, 0xeb, 0x12,
  0x2b, 0x2a, 0x07, 0xe7, 0xf7, 0xda, 0xd6, 0x18, 0x06, 0x28, 0x18, 0xdb,
  0xc9, 0xff, 0xd8, 0xd6, 0x0b, 0x08, 0xea, 0x03, 0xc9, 0xe9, 0xe4, 0x13,
  0x19, 0x15, 0xd5, 0x00, 0x00, 0x02, 0xd7, 0xf2, 0x15, 0xfc, 0x0f, 0x00,
  0xda, 0xbe, 0x1d, 0x02, 0xf7, 0xd0, 0xe7, 0xf1, 0xd1, 0xfd, 0x15, 0x0d,
  0x29, 0xfb, 0x14, 0xdb, 0xdc, 0xde, 0xe7, 0x09, 0x36, 0xe7, 0x15, 0xf5,
  0xe5, 0xea, 0x08, 0x1a, 0x17, 0x10, 0x05, 0x0e, 0xf0, 0xdf, 0x13, 0x09,
  0xed, 0x21, 0x15, 0xf1, 0xe6, 0xe5, 0xe8, 0x16, 0x25, 0x0f, 0xd6, 0xe3,
  0xd7, 0xfb, 0x05, 0x05, 0x09, 0x11, 0xd0, 0xf7, 0xe7, 0xfa, 0x1d, 0x1f,
  0xee, 0x01, 0xec, 0x12, 0x09, 0x00, 0x08, 0x00, 0xfc, 0xe1, 0xe4, 0xe4,
  0x1f, 0xe7, 0xd8, 0x20, 0x27, 0x10, 0xfb, 0xd2, 0x21, 0xd8, 0xee, 0x17,
  0xe1, 0x30, 0xdc, 0xe7, 0xe4, 0x20, 0xfb, 0x08, 0xfa, 0x3c, 0xeb, 0xeb,
  0xeb, 0x04, 0xf6, 0x17, 0x1e, 0x34, 0xe0, 0xe5, 0x1c, 0xf6, 0x0f, 0x2b,
  0x18, 0x0e, 0xf6, 0xed, 0x0c, 0x14, 0x08, 0xed, 0x17, 0x25, 0xe4, 0xf2,
  0x21, 0xe3, 0xdc, 0xea, 0xfa, 0x05, 0xce, 0xfc, 0xea, 0xe7, 0xec, 0x12,
  0x21, 0x0e, 0x0d, 0x02, 0x21, 0x00, 0xf2, 0xfe, 0x16, 0x27, 0xf9, 0xc6,
  0x13, 0x0d, 0x22, 0x1c, 0x05, 0xe0, 0x04, 0xe7, 0xf2, 0xf4, 0x08, 0x02,
  0x0a, 0x22, 0xfc, 0xc5, 0xd1, 0xfa, 0xf7, 0x0a, 0x15, 0x2a, 0xc4, 0xe8,
  0xf1, 0xe2, 0xe7, 0x17, 0x00, 0x06, 0x02, 0xd0, 0xe7, 0xfa, 0xde, 0x39,
  0x0b, 0x21, 0x02, 0xf8, 0xd5, 0xe1, 0xcd, 0x42, 0x07, 0x34, 0xe4, 0xff,
  0xce, 0xc6, 0xde, 0x2f, 0xe5, 0x20, 0xdc, 0xdd, 0x01, 0xe9, 0xfc, 0x36,
  0xf6, 0x53, 0x14, 0xf1, 0x04, 0xe7, 0x0c, 0x32, 0x1c, 0x5a, 0xf3, 0x05,
  0x0a, 0xca, 0xf1, 0x23, 0xf8, 0x2a, 0xd1, 0x08, 0xfe, 0xf6, 0xd7, 0x36,
  0x12, 0x1c, 0x12, 0x02, 0x15, 0xf3, 0xd8, 0x2e, 0x2e, 0x2d, 0xd7, 0xdc,
  0xdb, 0xec, 0xf1, 0x43, 0x26, 0x1d, 0x0c, 0x0d, 0x0c, 0xd1, 0xf4, 0x38,
  0x06, 0x4b, 0x0c, 0x06, 0xf1, 0xd7, 0xea, 0x49, 0x05, 0x0c, 0x0c, 0xf3,
  0xf6, 0xd4, 0xd1, 0x38, 0x16, 0x43, 0xd6, 0xf1, 0x82, 0xfe, 0xff, 0xff,
  0x04, 0x00, 0x00, 0x00, 0x40, 0x00, 0x00, 0x00, 0xf8, 0xfb, 0xff, 0xff,
  0xd0, 0x10, 0x00, 0x00, 0x48, 0xfb, 0xff, 0xff, 0x6e, 0x0e, 0x00, 0x00,
  0x66, 0x10, 0x00, 0x00, 0xac, 0xf1, 0xff, 0xff, 0x5b, 0x03, 0x00, 0x00,
  0x62, 0xf5, 0xff, 0xff, 0x07, 0xf3, 0xff, 0xff, 0x39, 0x02, 0x00, 0x00,
  0xde, 0xfe, 0xff, 0xff, 0xac, 0xfa, 0xff, 0xff, 0x9c, 0x00, 0x00, 0x00,
  0x9f, 0xf3, 0xff, 0xff, 0x67, 0x08, 0x00, 0x00, 0x15, 0x02, 0x00, 0x00,
  0xce, 0xfe, 0xff, 0xff, 0x04, 0x00, 0x00, 0x00, 0x60, 0x00, 0x00, 0x00,
  0x04, 0xb6, 0x18, 0xd9, 0x1d, 0xcf, 0x2d, 0x35, 0xcc, 0xd9, 0xf7, 0x29,
  0x21, 0xe1, 0x37, 0x3f, 0x28, 0x10, 0x9c, 0xf7, 0xc7, 0x51, 0xc9, 0x31,
  0x42, 0xa9, 0xcf, 0x31, 0x20, 0x4e, 0xcd, 0xc4, 0x8d, 0x99, 0x3b, 0x55,
  0x92, 0xf6, 0x4f, 0xb8, 0xa8, 0x3e, 0xea, 0x0b, 0x05, 0xe8, 0xdc, 0xd5,
  0xc5, 0x74, 0xfe, 0x60, 0x06, 0xae, 0x3a, 0xbb, 0xd9, 0x2e, 0x0f, 0x81,
  0xb6, 0xb8, 0xe5, 0x9f, 0xee, 0x17, 0xde, 0xec, 0x28, 0x02, 0xe4, 0xc1,
  0xf4, 0x1c, 0xd9, 0x25, 0x27, 0xb5, 0x40, 0x4e, 0x36, 0xf5, 0xc5, 0x0a,
  0xbf, 0xd8, 0xbd, 0xdd, 0xf2, 0xd9, 0x1d, 0x37, 0xb1, 0xde, 0x2b, 0xcc,
  0x3a, 0xff, 0xff, 0xff, 0x04, 0x00, 0x00, 0x00, 0x18, 0x00, 0x00, 0x00,
  0x58, 0x00, 0x00, 0x00, 0x78, 0xfb, 0xff, 0xff, 0x08, 0xfe, 0xff, 0xff,
  0xe6, 0x02, 0x00, 0x00, 0x62, 0xff, 0xff, 0xff, 0x76, 0x03, 0x00, 0x00,
  0x5e, 0xff, 0xff, 0xff, 0x04, 0x00, 0x00, 0x00, 0x08, 0x00, 0x00, 0x00,
  0xff, 0xff, 0xff, 0xff, 0x30, 0x01, 0x00, 0x00, 0x0c, 0xf5, 0xff, 0xff,
  0x10, 0xf5, 0xff, 0xff, 0x0f, 0x00, 0x00, 0x00, 0x4d, 0x4c, 0x49, 0x52,
  0x20, 0x43, 0x6f, 0x6e, 0x76, 0x65, 0x72, 0x74, 0x65, 0x64, 0x2e, 0x00,
  0x01, 0x00, 0x00, 0x00, 0x14, 0x00, 0x00, 0x00, 0x00, 0x00, 0x0e, 0x00,
  0x18, 0x00, 0x14, 0x00, 0x10, 0x00, 0x0c, 0x00, 0x08, 0x00, 0x04, 0x00,
  0x0e, 0x00, 0x00, 0x00, 0x14, 0x00, 0x00, 0x00, 0x1c, 0x00, 0x00, 0x00,
  0xbc, 0x01, 0x00, 0x00, 0xc0, 0x01, 0x00, 0x00, 0xc4, 0x01, 0x00, 0x00,
  0x04, 0x00, 0x00, 0x00, 0x6d, 0x61, 0x69, 0x6e, 0x00, 0x00, 0x00, 0x00,
  0x06, 0x00, 0x00, 0x00, 0x54, 0x01, 0x00, 0x00, 0x00, 0x01, 0x00, 0x00,
  0xd8, 0x00, 0x00, 0x00, 0x88, 0x00, 0x00, 0x00, 0x40, 0x00, 0x00, 0x00,
  0x04, 0x00, 0x00, 0x00, 0x92, 0xff, 0xff, 0xff, 0x1c, 0x00, 0x00, 0x00,
  0x00, 0x00, 0x00, 0x09, 0x1c, 0x00, 0x00, 0x00, 0x20, 0x00, 0x00, 0x00,
  0x03, 0x00, 0x00, 0x00, 0x00, 0x00, 0x06, 0x00, 0x08, 0x00, 0x04, 0x00,
  0x06, 0x00, 0x00, 0x00, 0x00, 0x00, 0x80, 0x3f, 0x01, 0x00, 0x00, 0x00,
  0x0f, 0x00, 0x00, 0x00, 0x01, 0x00, 0x00, 0x00, 0x0e, 0x00, 0x00, 0x00,
  0xca, 0xff, 0xff, 0xff, 0x14, 0x00, 0x00, 0x00, 0x00, 0x00, 0x00, 0x08,
  0x10, 0x00, 0x00, 0x00, 0x14, 0x00, 0x00, 0x00, 0x02, 0x00, 0x00, 0x00,
  0xd0, 0xf5, 0xff, 0xff, 0x01, 0x00, 0x00, 0x00, 0x0e, 0x00, 0x00, 0x00,
  0x03, 0x00, 0x00, 0x00, 0x0d, 0x00, 0x00, 0x00, 0x03, 0x00, 0x00, 0x00,
  0x02, 0x00, 0x00, 0x00, 0x00, 0x00, 0x0e, 0x00, 0x1a, 0x00, 0x14, 0x00,
  0x10, 0x00, 0x0c, 0x00, 0x0b, 0x00, 0x04, 0x00, 0x0e, 0x00, 0x00, 0x00,
  0x1c, 0x00, 0x00, 0x00, 0x00, 0x00, 0x00, 0x08, 0x1c, 0x00, 0x00, 0x00,
  0x20, 0x00, 0x00, 0x00, 0x02, 0x00, 0x00, 0x00, 0x00, 0x00, 0x06, 0x00,
  0x08, 0x00, 0x07, 0x00, 0x06, 0x00, 0x00, 0x00, 0x00, 0x00, 0x00, 0x01,
  0x01, 0x00, 0x00, 0x00, 0x0d, 0x00, 0x00, 0x00, 0x03, 0x00, 0x00, 0x00,
  0x0c, 0x00, 0x00, 0x00, 0x05, 0x00, 0x00, 0x00, 0x04, 0x00, 0x00, 0x00,
  0x00, 0x00, 0x0a, 0x00, 0x10, 0x00, 0x0c, 0x00, 0x08, 0x00, 0x04, 0x00,
  0x0a, 0x00, 0x00, 0x00, 0x0c, 0x00, 0x00, 0x00, 0x10, 0x00, 0x00, 0x00,
  0x01, 0x00, 0x00, 0x00, 0x01, 0x00, 0x00, 0x00, 0x0c, 0x00, 0x00, 0x00,
  0x02, 0x00, 0x00, 0x00, 0x0b, 0x00, 0x00, 0x00, 0x01, 0x00, 0x00, 0x00,
  0xbe, 0xff, 0xff, 0xff, 0x10, 0x00, 0x00, 0x00, 0x00, 0x00, 0x00, 0x01,
  0x1c, 0x00, 0x00, 0x00, 0x20, 0x00, 0x00, 0x00, 0xb0, 0xff, 0xff, 0xff,
  0x00, 0x00, 0x00, 0x01, 0x01, 0x00, 0x00, 0x00, 0x01, 0x00, 0x00, 0x00,
  0x00, 0x00, 0x00, 0x01, 0x01, 0x00, 0x00, 0x00, 0x0b, 0x00, 0x00, 0x00,
  0x03, 0x00, 0x00, 0x00, 0x0a, 0x00, 0x00, 0x00, 0x07, 0x00, 0x00, 0x00,
  0x06, 0x00, 0x00, 0x00, 0x00, 0x00, 0x0e, 0x00, 0x14, 0x00, 0x00, 0x00,
  0x10, 0x00, 0x0c, 0x00, 0x0b, 0x00, 0x04, 0x00, 0x0e, 0x00, 0x00, 0x00,
  0x1c, 0x00, 0x00, 0x00, 0x00, 0x00, 0x00, 0x01, 0x28, 0x00, 0x00, 0x00,
  0x2c, 0x00, 0x00, 0x00, 0x0c, 0x00, 0x14, 0x00, 0x13, 0x00, 0x0c, 0x00,
  0x08, 0x00, 0x07, 0x00, 0x0c, 0x00, 0x00, 0x00, 0x00, 0x00, 0x00, 0x01,
  0x01, 0x00, 0x00, 0x00, 0x01, 0x00, 0x00, 0x00, 0x00, 0x00, 0x00, 0x01,
  0x01, 0x00, 0x00, 0x00, 0x0a, 0x00, 0x00, 0x00, 0x03, 0x00, 0x00, 0x00,
  0x00, 0x00, 0x00, 0x00, 0x09, 0x00, 0x00, 0x00, 0x08, 0x00, 0x00, 0x00,
  0x01, 0x00, 0x00, 0x00, 0x0f, 0x00, 0x00, 0x00, 0x01, 0x00, 0x00, 0x00,
  0x00, 0x00, 0x00, 0x00, 0x10, 0x00, 0x00, 0x00, 0x2c, 0x09, 0x00, 0x00,
  0xc4, 0x08, 0x00, 0x00, 0x30, 0x08, 0x00, 0x00, 0xc4, 0x07, 0x00, 0x00,
  0x50, 0x07, 0x00, 0x00, 0xe4, 0x06, 0x00, 0x00, 0x18, 0x06, 0x00, 0x00,
  0x4c, 0x05, 0x00, 0x00, 0xb0, 0x04, 0x00, 0x00, 0x14, 0x04, 0x00, 0x00,
  0x30, 0x03, 0x00, 0x00, 0x44, 0x02, 0x00, 0x00, 0xc8, 0x01, 0x00, 0x00,
  0x1c, 0x01, 0x00, 0x00, 0x80, 0x00, 0x00, 0x00, 0x04, 0x00, 0x00, 0x00,
  0x2a, 0xf7, 0xff, 0xff, 0x00, 0x00, 0x00, 0x01, 0x18, 0x00, 0x00, 0x00,
  0x20, 0x00, 0x00, 0x00, 0x3c, 0x00, 0x00, 0x00, 0x10, 0x00, 0x00, 0x00,
  0x00, 0x00, 0x00, 0x09, 0x50, 0x00, 0x00, 0x00, 0x02, 0x00, 0x00, 0x00,
  0xff, 0xff, 0xff, 0xff, 0x06, 0x00, 0x00, 0x00, 0x0c, 0xf7, 0xff, 0xff,
  0x08, 0x00, 0x00, 0x00, 0x10, 0x00, 0x00, 0x00, 0x01, 0x00, 0x00, 0x00,
  0x80, 0xff, 0xff, 0xff, 0xff, 0xff, 0xff, 0xff, 0x01, 0x00, 0x00, 0x00,
  0x00, 0x00, 0x80, 0x3b, 0x19, 0x00, 0x00, 0x00, 0x53, 0x74, 0x61, 0x74,
  0x65, 0x66, 0x75, 0x6c, 0x50, 0x61, 0x72, 0x74, 0x69, 0x74, 0x69, 0x6f,
  0x6e, 0x65, 0x64, 0x43, 0x61, 0x6c, 0x6c, 0x3a, 0x30, 0x00, 0x00, 0x00,
  0x02, 0x00, 0x00, 0x00, 0x01, 0x00, 0x00, 0x00, 0x06, 0x00, 0x00, 0x00,
  0xa2, 0xf7, 0xff, 0xff, 0x00, 0x00, 0x00, 0x01, 0x18, 0x00, 0x00, 0x00,
  0x20, 0x00, 0x00, 0x00, 0x40, 0x00, 0x00, 0x00, 0x0f, 0x00, 0x00, 0x00,
  0x00, 0x00, 0x00, 0x09, 0x70, 0x00, 0x00, 0x00, 0x02, 0x00, 0x00, 0x00,
  0xff, 0xff, 0xff, 0xff, 0x06, 0x00, 0x00, 0x00, 0x84, 0xf7, 0xff, 0xff,
  0x08, 0x00, 0x00, 0x00, 0x14, 0x00, 0x00, 0x00, 0x01, 0x00, 0x00, 0x00,
  0x1f, 0x00, 0x00, 0x00, 0x00, 0x00, 0x00, 0x00, 0x00, 0x00, 0x00, 0x00,
  0x01, 0x00, 0x00, 0x00, 0x63, 0xcb, 0x17, 0x3e, 0x34, 0x00, 0x00, 0x00,
  0x73, 0x65, 0x71, 0x75, 0x65, 0x6e, 0x74, 0x69, 0x61, 0x6c, 0x2f, 0x64,
  0x65, 0x6e, 0x73, 0x65, 0x5f, 0x31, 0x2f, 0x4d, 0x61, 0x74, 0x4d, 0x75,
  0x6c, 0x3b, 0x73, 0x65, 0x71, 0x75, 0x65, 0x6e, 0x74, 0x69, 0x61, 0x6c,
  0x2f, 0x64, 0x65, 0x6e, 0x73, 0x65, 0x5f, 0x31, 0x2f, 0x42, 0x69, 0x61,
  0x73, 0x41, 0x64, 0x64, 0x00, 0x00, 0x00, 0x00, 0x02, 0x00, 0x00, 0x00,
  0x01, 0x00, 0x00, 0x00, 0x06, 0x00, 0x00, 0x00, 0x3a, 0xf8, 0xff, 0xff,
  0x00, 0x00, 0x00, 0x01, 0x18, 0x00, 0x00, 0x00, 0x20, 0x00, 0x00, 0x00,
  0x40, 0x00, 0x00, 0x00, 0x0e, 0x00, 0x00, 0x00, 0x00, 0x00, 0x00, 0x09,
  0x80, 0x00, 0x00, 0x00, 0x02, 0x00, 0x00, 0x00, 0xff, 0xff, 0xff, 0xff,
  0x10, 0x00, 0x00, 0x00, 0x1c, 0xf8, 0xff, 0xff, 0x08, 0x00, 0x00, 0x00,
  0x14, 0x00, 0x00, 0x00, 0x01, 0x00, 0x00, 0x00, 0x80, 0xff, 0xff, 0xff,
  0xff, 0xff, 0xff, 0xff, 0x00, 0x00, 0x00, 0x00, 0x01, 0x00, 0x00, 0x00,
  0x1a, 0xa9, 0x57, 0x3d, 0x46, 0x00, 0x00, 0x00, 0x73, 0x65, 0x71, 0x75,
  0x65, 0x6e, 0x74, 0x69, 0x61, 0x6c, 0x2f, 0x64, 0x65, 0x6e, 0x73, 0x65,
  0x2f, 0x4d, 0x61, 0x74, 0x4d, 0x75, 0x6c, 0x3b, 0x73, 0x65, 0x71, 0x75,
  0x65, 0x6e, 0x74, 0x69, 0x61, 0x6c, 0x2f, 0x64, 0x65, 0x6e, 0x73, 0x65,
  0x2f, 0x52, 0x65, 0x6c, 0x75, 0x3b, 0x73, 0x65, 0x71, 0x75, 0x65, 0x6e,
  0x74, 0x69, 0x61, 0x6c, 0x2f, 0x64, 0x65, 0x6e, 0x73, 0x65, 0x2f, 0x42,
  0x69, 0x61, 0x73, 0x41, 0x64, 0x64, 0x00, 0x00, 0x02, 0x00, 0x00, 0x00,
  0x01, 0x00, 0x00, 0x00, 0x10, 0x00, 0x00, 0x00, 0xe2, 0xf8, 0xff, 0xff,
  0x00, 0x00, 0x00, 0x01, 0x18, 0x00, 0x00, 0x00, 0x20, 0x00, 0x00, 0x00,
  0x3c, 0x00, 0x00, 0x00, 0x0d, 0x00, 0x00, 0x00, 0x00, 0x00, 0x00, 0x09,
  0x50, 0x00, 0x00, 0x00, 0x02, 0x00, 0x00, 0x00, 0xff, 0xff, 0xff, 0xff,
  0x30, 0x01, 0x00, 0x00, 0xc4, 0xf8, 0xff, 0xff, 0x08, 0x00, 0x00, 0x00,
  0x10, 0x00, 0x00, 0x00, 0x01, 0x00, 0x00, 0x00, 0x80, 0xff, 0xff, 0xff,
  0xff, 0xff, 0xff, 0xff, 0x01, 0x00, 0x00, 0x00, 0xfa, 0x03, 0x6c, 0x3c,
  0x1a, 0x00, 0x00, 0x00, 0x73, 0x65, 0x71, 0x75, 0x65, 0x6e, 0x74, 0x69,
  0x61, 0x6c, 0x2f, 0x66, 0x6c, 0x61, 0x74, 0x74, 0x65, 0x6e, 0x2f, 0x52,
  0x65, 0x73, 0x68, 0x61, 0x70, 0x65, 0x00, 0x00, 0x02, 0x00, 0x00, 0x00,
  0x01, 0x00, 0x00, 0x00, 0x30, 0x01, 0x00, 0x00, 0x5a, 0xf9, 0xff, 0xff,
  0x00, 0x00, 0x00, 0x01, 0x18, 0x00, 0x00, 0x00, 0x28, 0x00, 0x00, 0x00,
  0x44, 0x00, 0x00, 0x00, 0x0c, 0x00, 0x00, 0x00, 0x00, 0x00, 0x00, 0x09,
  0xb8, 0x00, 0x00, 0x00, 0x04, 0x00, 0x00, 0x00, 0xff, 0xff, 0xff, 0xff,
  0x26, 0x00, 0x00, 0x00, 0x01, 0x00, 0x00, 0x00, 0x08, 0x00, 0x00, 0x00,
  0x44, 0xf9, 0xff, 0xff, 0x08, 0x00, 0x00, 0x00, 0x10, 0x00, 0x00, 0x00,
  0x01, 0x00, 0x00, 0x00, 0x80, 0xff, 0xff, 0xff, 0xff, 0xff, 0xff, 0xff,
  0x01, 0x00, 0x00, 0x00, 0xfa, 0x03, 0x6c, 0x3c, 0x7a, 0x00, 0x00, 0x00,
  0x73, 0x65, 0x71, 0x75, 0x65, 0x6e, 0x74, 0x69, 0x61, 0x6c, 0x2f, 0x63,
  0x6f, 0x6e, 0x76, 0x32, 0x64, 0x5f, 0x31, 0x2f, 0x52, 0x65, 0x6c, 0x75,
  0x3b, 0x73, 0x65, 0x71, 0x75, 0x65, 0x6e, 0x74, 0x69, 0x61, 0x6c, 0x2f,
  0x63, 0x6f, 0x6e, 0x76, 0x32, 0x64, 0x5f, 0x31, 0x2f, 0x42, 0x69, 0x61,
  0x73, 0x41, 0x64, 0x64, 0x3b, 0x73, 0x65, 0x71, 0x75, 0x65, 0x6e, 0x74,
  0x69, 0x61, 0x6c, 0x2f, 0x63, 0x6f, 0x6e, 0x76, 0x32, 0x64, 0x5f, 0x31,
  0x2f, 0x43, 0x6f, 0x6e, 0x76, 0x32, 0x44, 0x3b, 0x73, 0x65, 0x71, 0x75,
  0x65, 0x6e, 0x74, 0x69, 0x61, 0x6c, 0x2f, 0x63, 0x6f, 0x6e, 0x76, 0x32,
  0x64, 0x5f, 0x31, 0x2f, 0x42, 0x69, 0x61, 0x73, 0x41, 0x64, 0x64, 0x2f,
  0x52, 0x65, 0x61, 0x64, 0x56, 0x61, 0x72, 0x69, 0x61, 0x62, 0x6c, 0x65,
  0x4f, 0x70, 0x00, 0x00, 0x04, 0x00, 0x00, 0x00, 0x01, 0x00, 0x00, 0x00,
  0x26, 0x00, 0x00, 0x00, 0x01, 0x00, 0x00, 0x00, 0x08, 0x00, 0x00, 0x00,
  0x42, 0xfa, 0xff, 0xff, 0x00, 0x00, 0x00, 0x01, 0x18, 0x00, 0x00, 0x00,
  0x28, 0x00, 0x00, 0x00, 0x44, 0x00, 0x00, 0x00, 0x0b, 0x00, 0x00, 0x00,
  0x00, 0x00, 0x00, 0x09, 0xb0, 0x00, 0x00, 0x00, 0x04, 0x00, 0x00, 0x00,
  0xff, 0xff, 0xff, 0xff, 0x27, 0x00, 0x00, 0x00, 0x02, 0x00, 0x00, 0x00,
  0x04, 0x00, 0x00, 0x00, 0x2c, 0xfa, 0xff, 0xff, 0x08, 0x00, 0x00, 0x00,
  0x10, 0x00, 0x00, 0x00, 0x01, 0x00, 0x00, 0x00, 0x80, 0xff, 0xff, 0xff,
  0xff, 0xff, 0xff, 0xff, 0x01, 0x00, 0x00, 0x00, 0x1f, 0x2f, 0x94, 0x3c,
  0x72, 0x00, 0x00, 0x00, 0x73, 0x65, 0x71, 0x75, 0x65, 0x6e, 0x74, 0x69,
  0x61, 0x6c, 0x2f, 0x63, 0x6f, 0x6e, 0x76, 0x32, 0x64, 0x2f, 0x52, 0x65,
  0x6c, 0x75, 0x3b, 0x73, 0x65, 0x71, 0x75, 0x65, 0x6e, 0x74, 0x69, 0x61,
  0x6c, 0x2f, 0x63, 0x6f, 0x6e, 0x76, 0x32, 0x64, 0x2f, 0x42, 0x69, 0x61,
  0x73, 0x41, 0x64, 0x64, 0x3b, 0x73, 0x65, 0x71, 0x75, 0x65, 0x6e, 0x74,
  0x69, 0x61, 0x6c, 0x2f, 0x63, 0x6f, 0x6e, 0x76, 0x32, 0x64, 0x2f, 0x43,
  0x6f, 0x6e, 0x76, 0x32, 0x44, 0x3b, 0x73, 0x65, 0x71, 0x75, 0x65, 0x6e,
  0x74, 0x69, 0x61, 0x6c, 0x2f, 0x63, 0x6f, 0x6e, 0x76, 0x32, 0x64, 0x2f,
  0x42, 0x69, 0x61, 0x73, 0x41, 0x64, 0x64, 0x2f, 0x52, 0x65, 0x61, 0x64,
  0x56, 0x61, 0x72, 0x69, 0x61, 0x62, 0x6c, 0x65, 0x4f, 0x70, 0x00, 0x00,
  0x04, 0x00, 0x00, 0x00, 0x01, 0x00, 0x00, 0x00, 0x27, 0x00, 0x00, 0x00,
  0x02, 0x00, 0x00, 0x00, 0x04, 0x00, 0x00, 0x00, 0x86, 0xfb, 0xff, 0xff,
  0x00, 0x00, 0x00, 0x01, 0x14, 0x00, 0x00, 0x00, 0x58, 0x00, 0x00, 0x00,
  0x0a, 0x00, 0x00, 0x00, 0x00, 0x00, 0x00, 0x09, 0x6c, 0x00, 0x00, 0x00,
  0xf4, 0xfa, 0xff, 0xff, 0x08, 0x00, 0x00, 0x00, 0x2c, 0x00, 0x00, 0x00,
  0x04, 0x00, 0x00, 0x00, 0x00, 0x00, 0x00, 0x00, 0x00, 0x00, 0x00, 0x00,
  0x00, 0x00, 0x00, 0x00, 0x00, 0x00, 0x00, 0x00, 0x00, 0x00, 0x00, 0x00,
  0x00, 0x00, 0x00, 0x00, 0x00, 0x00, 0x00, 0x00, 0x00, 0x00, 0x00, 0x00,
  0x00, 0x00, 0x00, 0x00, 0x04, 0x00, 0x00, 0x00, 0x7a, 0x4e, 0xb0, 0x3b,
  0xf2, 0xd4, 0x8d, 0x3b, 0x5c, 0x71, 0x94, 0x3b, 0xca, 0x76, 0x62, 0x3b,
  0x18, 0x00, 0x00, 0x00, 0x73, 0x65, 0x71, 0x75, 0x65, 0x6e, 0x74, 0x69,
  0x61, 0x6c, 0x2f, 0x63, 0x6f, 0x6e, 0x76, 0x32, 0x64, 0x2f, 0x43, 0x6f,
  0x6e, 0x76, 0x32, 0x44, 0x00, 0x00, 0x00, 0x00, 0x04, 0x00, 0x00, 0x00,
  0x04, 0x00, 0x00, 0x00, 0x02, 0x00, 0x00, 0x00, 0x02, 0x00, 0x00, 0x00,
  0x01, 0x00, 0x00, 0x00, 0x1e, 0xfc, 0xff, 0xff, 0x00, 0x00, 0x00, 0x01,
  0x14, 0x00, 0x00, 0x00, 0x54, 0x00, 0x00, 0x00, 0x09, 0x00, 0x00, 0x00,
  0x00, 0x00, 0x00, 0x02, 0x78, 0x00, 0x00, 0x00, 0x8c, 0xfb, 0xff, 0xff,
  0x08, 0x00, 0x00, 0x00, 0x28, 0x00, 0x00, 0x00, 0x04, 0x00, 0x00, 0x00,
  0x00, 0x00, 0x00, 0x00, 0x00, 0x00, 0x00, 0x00, 0x00, 0x00, 0x00, 0x00,
  0x00, 0x00, 0x00, 0x00, 0x00, 0x00, 0x00, 0x00, 0x00, 0x00, 0x00, 0x00,
  0x00, 0x00, 0x00, 0x00, 0x00, 0x00, 0x00, 0x00, 0x04, 0x00, 0x00, 0x00,
  0x3f, 0x4c, 0x34, 0x39, 0xeb, 0x0a, 0x11, 0x39, 0xa5, 0xcd, 0x17, 0x39,
  0x3e, 0x97, 0xe7, 0x38, 0x28, 0x00, 0x00, 0x00, 0x73, 0x65, 0x71, 0x75,
  0x65, 0x6e, 0x74, 0x69, 0x61, 0x6c, 0x2f, 0x63, 0x6f, 0x6e, 0x76, 0x32,
  0x64, 0x2f, 0x42, 0x69, 0x61, 0x73, 0x41, 0x64, 0x64, 0x2f, 0x52, 0x65,
  0x61, 0x64, 0x56, 0x61, 0x72, 0x69, 0x61, 0x62, 0x6c, 0x65, 0x4f, 0x70,
  0x00, 0x00, 0x00, 0x00, 0x01, 0x00, 0x00, 0x00, 0x04, 0x00, 0x00, 0x00,
  0xb6, 0xfc, 0xff, 0xff, 0x00, 0x00, 0x00, 0x01, 0x14, 0x00, 0x00, 0x00,
  0x88, 0x00, 0x00, 0x00, 0x08, 0x00, 0x00, 0x00, 0x00, 0x00, 0x00, 0x09,
  0x9c, 0x00, 0x00, 0x00, 0x24, 0xfc, 0xff, 0xff, 0x08, 0x00, 0x00, 0x00,
  0x4c, 0x00, 0x00, 0x00, 0x08, 0x00, 0x00, 0x00, 0x00, 0x00, 0x00, 0x00,
  0x00, 0x00, 0x00, 0x00, 0x00, 0x00, 0x00, 0x00, 0x00, 0x00, 0x00, 0x00,
  0x00, 0x00, 0x00, 0x00, 0x00, 0x00, 0x00, 0x00, 0x00, 0x00, 0x00, 0x00,
  0x00, 0x00, 0x00, 0x00, 0x00, 0x00, 0x00, 0x00, 0x00, 0x00, 0x00, 0x00,
  0x00, 0x00, 0x00, 0x00, 0x00, 0x00, 0x00, 0x00, 0x00, 0x00, 0x00, 0x00,
  0x00, 0x00, 0x00, 0x00, 0x00, 0x00, 0x00, 0x00, 0x00, 0x00, 0x00, 0x00,
  0x00, 0x00, 0x00, 0x00, 0x08, 0x00, 0x00, 0x00, 0x01, 0x70, 0x63, 0x3b,
  0xad, 0xe3, 0x83, 0x3b, 0x96, 0x44, 0x90, 0x3b, 0x0e, 0x86, 0x94, 0x3b,
  0xa4, 0x2f, 0x9d, 0x3b, 0x8b, 0xfa, 0x9f, 0x3b, 0xa0, 0xf2, 0x4e, 0x3b,
  0x5f, 0x24, 0x6d, 0x3b, 0x1a, 0x00, 0x00, 0x00, 0x73, 0x65, 0x71, 0x75,
  0x65, 0x6e, 0x74, 0x69, 0x61, 0x6c, 0x2f, 0x63, 0x6f, 0x6e, 0x76, 0x32,
  0x64, 0x5f, 0x31, 0x2f, 0x43, 0x6f, 0x6e, 0x76, 0x32, 0x44, 0x00, 0x00,
  0x04, 0x00, 0x00, 0x00, 0x08, 0x00, 0x00, 0x00, 0x02, 0x00, 0x00, 0x00,
  0x02, 0x00, 0x00, 0x00, 0x04, 0x00, 0x00, 0x00, 0x7e, 0xfd, 0xff, 0xff,
  0x00, 0x00, 0x00, 0x01, 0x14, 0x00, 0x00, 0x00, 0x84, 0x00, 0x00, 0x00,
  0x07, 0x00, 0x00, 0x00, 0x00, 0x00, 0x00, 0x02, 0xa8, 0x00, 0x00, 0x00,
  0xec, 0xfc, 0xff, 0xff, 0x08, 0x00, 0x00, 0x00, 0x48, 0x00, 0x00, 0x00,
  0x08, 0x00, 0x00, 0x00, 0x00, 0x00, 0x00, 0x00, 0x00, 0x00, 0x00, 0x00,
  0x00, 0x00, 0x00, 0x00, 0x00, 0x00, 0x00, 0x00, 0x00, 0x00, 0x00, 0x00,
  0x00, 0x00, 0x00, 0x00, 0x00, 0x00, 0x00, 0x00, 0x00, 0x00, 0x00, 0x00,
  0x00, 0x00, 0x00, 0x00, 0x00, 0x00, 0x00, 0x00, 0x00, 0x00, 0x00, 0x00,
  0x00, 0x00, 0x00, 0x00, 0x00, 0x00, 0x00, 0x00, 0x00, 0x00, 0x00, 0x00,
  0x00, 0x00, 0x00, 0x00, 0x00, 0x00, 0x00, 0x00, 0x08, 0x00, 0x00, 0x00,
  0x9e, 0xa6, 0x83, 0x38, 0xce, 0xaf, 0x98, 0x38, 0x6a, 0x04, 0xa7, 0x38,
  0xad, 0xf1, 0xab, 0x38, 0xf3, 0xf8, 0xb5, 0x38, 0x95, 0x34, 0xb9, 0x38,
  0xb8, 0x94, 0x6f, 0x38, 0xad, 0x44, 0x89, 0x38, 0x2a, 0x00, 0x00, 0x00,
  0x73, 0x65, 0x71, 0x75, 0x65, 0x6e, 0x74, 0x69, 0x61, 0x6c, 0x2f, 0x63,
  0x6f, 0x6e, 0x76, 0x32, 0x64, 0x5f, 0x31, 0x2f, 0x42, 0x69, 0x61, 0x73,
  0x41, 0x64, 0x64, 0x2f, 0x52, 0x65, 0x61, 0x64, 0x56, 0x61, 0x72, 0x69,
  0x61, 0x62, 0x6c, 0x65, 0x4f, 0x70, 0x00, 0x00, 0x01, 0x00, 0x00, 0x00,
  0x08, 0x00, 0x00, 0x00, 0x46, 0xfe, 0xff, 0xff, 0x00, 0x00, 0x00, 0x01,
  0x14, 0x00, 0x00, 0x00, 0x34, 0x00, 0x00, 0x00, 0x06, 0x00, 0x00, 0x00,
  0x00, 0x00, 0x00, 0x09, 0x44, 0x00, 0x00, 0x00, 0xb4, 0xfd, 0xff, 0xff,
  0x08, 0x00, 0x00, 0x00, 0x14, 0x00, 0x00, 0x00, 0x01, 0x00, 0x00, 0x00,
  0x00, 0x00, 0x00, 0x00, 0x00, 0x00, 0x00, 0x00, 0x00, 0x00, 0x00, 0x00,
  0x01, 0x00, 0x00, 0x00, 0x20, 0x2e, 0x58, 0x3b, 0x17, 0x00, 0x00, 0x00,
  0x73, 0x65, 0x71, 0x75, 0x65, 0x6e, 0x74, 0x69, 0x61, 0x6c, 0x2f, 0x64,
  0x65, 0x6e, 0x73, 0x65, 0x2f, 0x4d, 0x61, 0x74, 0x4d, 0x75, 0x6c, 0x00,
  0x02, 0x00, 0x00, 0x00, 0x10, 0x00, 0x00, 0x00, 0x30, 0x01, 0x00, 0x00,
  0xae, 0xfe, 0xff, 0xff, 0x00, 0x00, 0x00, 0x01, 0x14, 0x00, 0x00, 0x00,
  0x30, 0x00, 0x00, 0x00, 0x05, 0x00, 0x00, 0x00, 0x00, 0x00, 0x00, 0x02,
  0x50, 0x00, 0x00, 0x00, 0x1c, 0xfe, 0xff, 0xff, 0x08, 0x00, 0x00, 0x00,
  0x10, 0x00, 0x00, 0x00, 0x01, 0x00, 0x00, 0x00, 0x00, 0x00, 0x00, 0x00,
  0x00, 0x00, 0x00, 0x00, 0x01, 0x00, 0x00, 0x00, 0xe1, 0x4d, 0x47, 0x38,
  0x27, 0x00, 0x00, 0x00, 0x73, 0x65, 0x71, 0x75, 0x65, 0x6e, 0x74, 0x69,
  0x61, 0x6c, 0x2f, 0x64, 0x65, 0x6e, 0x73, 0x65, 0x2f, 0x42, 0x69, 0x61,
  0x73, 0x41, 0x64, 0x64, 0x2f, 0x52, 0x65, 0x61, 0x64, 0x56, 0x61, 0x72,
  0x69, 0x61, 0x62, 0x6c, 0x65, 0x4f, 0x70, 0x00, 0x01, 0x00, 0x00, 0x00,
  0x10, 0x00, 0x00, 0x00, 0x1e, 0xff, 0xff, 0xff, 0x00, 0x00, 0x00, 0x01,
  0x14, 0x00, 0x00, 0x00, 0x30, 0x00, 0x00, 0x00, 0x04, 0x00, 0x00, 0x00,
  0x00, 0x00, 0x00, 0x09, 0x44, 0x00, 0x00, 0x00, 0x8c, 0xfe, 0xff, 0xff,
  0x08, 0x00, 0x00, 0x00, 0x10, 0x00, 0x00, 0x00, 0x01, 0x00, 0x00, 0x00,
  0x00, 0x00, 0x00, 0x00, 0x00, 0x00, 0x00, 0x00, 0x01, 0x00, 0x00, 0x00,
  0x04, 0x34, 0xfb, 0x3b, 0x19, 0x00, 0x00, 0x00, 0x73, 0x65, 0x71, 0x75,
  0x65, 0x6e, 0x74, 0x69, 0x61, 0x6c, 0x2f, 0x64, 0x65, 0x6e, 0x73, 0x65,
  0x5f, 0x31, 0x2f, 0x4d, 0x61, 0x74, 0x4d, 0x75, 0x6c, 0x00, 0x00, 0x00,
  0x02, 0x00, 0x00, 0x00, 0x06, 0x00, 0x00, 0x00, 0x10, 0x00, 0x00, 0x00,
  0x86, 0xff, 0xff, 0xff, 0x00, 0x00, 0x00, 0x01, 0x14, 0x00, 0x00, 0x00,
  0x34, 0x00, 0x00, 0x00, 0x03, 0x00, 0x00, 0x00, 0x00, 0x00, 0x00, 0x02,
  0x58, 0x00, 0x00, 0x00, 0xf4, 0xfe, 0xff, 0xff, 0x08, 0x00, 0x00, 0x00,
  0x14, 0x00, 0x00, 0x00, 0x01, 0x00, 0x00, 0x00, 0x00, 0x00, 0x00, 0x00,
  0x00, 0x00, 0x00, 0x00, 0x00, 0x00, 0x00, 0x00, 0x01, 0x00, 0x00, 0x00,
  0x9e, 0x9e, 0xd3, 0x39, 0x29, 0x00, 0x00, 0x00, 0x73, 0x65, 0x71, 0x75,
  0x65, 0x6e, 0x74, 0x69, 0x61, 0x6c, 0x2f, 0x64, 0x65, 0x6e, 0x73, 0x65,
  0x5f, 0x31, 0x2f, 0x42, 0x69, 0x61, 0x73, 0x41, 0x64, 0x64, 0x2f, 0x52,
  0x65, 0x61, 0x64, 0x56, 0x61, 0x72, 0x69, 0x61, 0x62, 0x6c, 0x65, 0x4f,
  0x70, 0x00, 0x00, 0x00, 0x01, 0x00, 0x00, 0x00, 0x06, 0x00, 0x00, 0x00,
  0x00, 0x00, 0x16, 0x00, 0x1c, 0x00, 0x18, 0x00, 0x17, 0x00, 0x10, 0x00,
  0x0c, 0x00, 0x08, 0x00, 0x00, 0x00, 0x00, 0x00, 0x00, 0x00, 0x07, 0x00,
  0x16, 0x00, 0x00, 0x00, 0x00, 0x00, 0x00, 0x01, 0x18, 0x00, 0x00, 0x00,
  0x18, 0x00, 0x00, 0x00, 0x02, 0x00, 0x00, 0x00, 0x00, 0x00, 0x00, 0x02,
  0x2c, 0x00, 0x00, 0x00, 0x04, 0x00, 0x04, 0x00, 0x04, 0x00, 0x00, 0x00,
  0x18, 0x00, 0x00, 0x00, 0x73, 0x65, 0x71, 0x75, 0x65, 0x6e, 0x74, 0x69,
  0x61, 0x6c, 0x2f, 0x66, 0x6c, 0x61, 0x74, 0x74, 0x65, 0x6e, 0x2f, 0x43,
  0x6f, 0x6e, 0x73, 0x74, 0x00, 0x00, 0x00, 0x00, 0x01, 0x00, 0x00, 0x00,
  0x02, 0x00, 0x00, 0x00, 0x00, 0x00, 0x16, 0x00, 0x20, 0x00, 0x1c, 0x00,
  0x1b, 0x00, 0x14, 0x00, 0x10, 0x00, 0x0c, 0x00, 0x00, 0x00, 0x00, 0x00,
  0x08, 0x00, 0x07, 0x00, 0x16, 0x00, 0x00, 0x00, 0x00, 0x00, 0x00, 0x01,
  0x18, 0x00, 0x00, 0x00, 0x34, 0x00, 0x00, 0x00, 0x50, 0x00, 0x00, 0x00,
  0x01, 0x00, 0x00, 0x00, 0x00, 0x00, 0x00, 0x09, 0x68, 0x00, 0x00, 0x00,
  0x04, 0x00, 0x00, 0x00, 0xff, 0xff, 0xff, 0xff, 0x28, 0x00, 0x00, 0x00,
  0x03, 0x00, 0x00, 0x00, 0x01, 0x00, 0x00, 0x00, 0x0c, 0x00, 0x0c, 0x00,
  0x00, 0x00, 0x00, 0x00, 0x08, 0x00, 0x04, 0x00, 0x0c, 0x00, 0x00, 0x00,
  0x08, 0x00, 0x00, 0x00, 0x10, 0x00, 0x00, 0x00, 0x01, 0x00, 0x00, 0x00,
  0xf7, 0xff, 0xff, 0xff, 0xff, 0xff, 0xff, 0xff, 0x01, 0x00, 0x00, 0x00,
  0xd0, 0xe5, 0x02, 0x3d, 0x1e, 0x00, 0x00, 0x00, 0x73, 0x65, 0x72, 0x76,
  0x69, 0x6e, 0x67, 0x5f, 0x64, 0x65, 0x66, 0x61, 0x75, 0x6c, 0x74, 0x5f,
  0x63, 0x6f, 0x6e, 0x76, 0x32, 0x64, 0x5f, 0x69, 0x6e, 0x70, 0x75, 0x74,
  0x3a, 0x30, 0x00, 0x00, 0x04, 0x00, 0x00, 0x00, 0x01, 0x00, 0x00, 0x00,
  0x28, 0x00, 0x00, 0x00, 0x03, 0x00, 0x00, 0x00, 0x01, 0x00, 0x00, 0x00,
  0x04, 0x00, 0x00, 0x00, 0x54, 0x00, 0x00, 0x00, 0x38, 0x00, 0x00, 0x00,
  0x18, 0x00, 0x00, 0x00, 0x04, 0x00, 0x00, 0x00, 0xc8, 0xff, 0xff, 0xff,
  0x19, 0x00, 0x00, 0x00, 0x02, 0x00, 0x00, 0x00, 0x00, 0x00, 0x00, 0x19,
  0xd8, 0xff, 0xff, 0xff, 0x09, 0x00, 0x00, 0x00, 0x04, 0x00, 0x00, 0x00,
  0x00, 0x00, 0x00, 0x09, 0x0c, 0x00, 0x0c, 0x00, 0x0b, 0x00, 0x00, 0x00,
  0x00, 0x00, 0x04, 0x00, 0x0c, 0x00, 0x00, 0x00, 0x16, 0x00, 0x00, 0x00,
  0x00, 0x00, 0x00, 0x16, 0x0c, 0x00, 0x10, 0x00, 0x0f, 0x00, 0x00, 0x00,
  0x08, 0x00, 0x04, 0x00, 0x0c, 0x00, 0x00, 0x00, 0x03, 0x00, 0x00, 0x00,
  0x03, 0x00, 0x00, 0x00, 0x00, 0x00, 0x00, 0x03
};
unsigned int model_tflite_len = 8984;
